76064aa0
2225484b
1f00ef18
4479e65c
87ef5186
1438b92e
fa1a464d
e8b4c464
2edbdbc2
4702d2bc
11753e45
2efda6fa
e12c39da
120a02d7
1081a030
6ce21818
8434545d
b8e631da
74fd10a8
302b162f
8107474e
1a7bc253
4479e65c
0f22b122
311526e6
af4d7a04
33353cc2
6b737736
432a25b0
de1aeaed
12e93373
1321b889
c630c602
f7a2b312
7fca8e17
04efd1c1
7fca8e17
c64e2263
488714e9
12e93373
5006d247
727a162d
12e93373
45beb1fd
54af9c66
f7a2b312
7bfd5e9f
c64e2263
3d94d714
1f00ef18
ea13b4fd
9ee61499
4479e65c
80481bc8
97303d7c
03ff7b8e
c947c749
a911ac0b
a0f0a05e
043cff6a
8aab6c11
c291cf91
4f38dc57
7e68ca35
17cb4fa7
fb6032d0
2b1d588b
e4f8d1c2
2b1d588b
625245e5
e4b4160c
86a19e64
6893476f
8d23ada6
7fca8e17
1f00ef18
7d09f1d2
f7a2b312
488714e9
04efd1c1
488714e9
0a5bb5ef
5cbc2fac
15e0b53d
1f00ef18
aa61b1a4
8b53709d
575b84ac
d7790d07
084fd715
4eae7306
39d4dd14
2ffee76c
1112791c
6009b9fb
ee9e9ddc
2ffee76c
251d4f68
302b162f
fd6b28f0
b4ec0173
4479e65c
decedb16
f7b5ab97
12e93373
c8a5e4cf
7948d58d
2bd3f515
1f00ef18
dda18380
302b162f
fd6b28f0
b4ec0173
4479e65c
fc6c7880
1502e742
12e93373
c8a5e4cf
7948d58d
7215c83c
1f00ef18
dda18380
12e93373
c8a5e4cf
980a9dd9
1f00ef18
e5ac63a8
4e4471b1
d7790d07
81dd61be
bc843e0c
cb24f967
f7a2b312
c010af3f
1f00ef18
11753e45
10ffc55d
e747f424
e44188f8
d18894dc
8e71d073
c02daf97
839e032f
4479e65c
be7fd0a5
56f419e3
af4d7a04
12e93373
e12c39da
9ae2253d
0aa7f42e
fca83398
2bd3f515
1f00ef18
b0a9cfcd
7e68ca35
6a74f51e
17cb4fa7
fb8f1dfa
aa61b1a4
53ffa997
ef06c9bf
98cbccd9
6f91a9e8
8bdda0d3
fd3179f8
6ddc2c44
9d369825
39d4dd14
07843e34
1112791c
c6f75800
2965f59e
0aa7f42e
d06f4d68
12e93373
fc59e8d8
d06f4d68
1f00ef18
0b5bc104
839e032f
4479e65c
7160c6b5
125a7206
12e93373
4ecb2945
d06f4d68
1f00ef18
f1656fdd
c34170fd
8d23ada6
185716e0
1f00ef18
11753e45
a0341bb0
d874f629
17cb4fa7
b61238cf
39d4dd14
e9a9eda7
b9069fe5
11753e45
18373a4d
dff3c8de
45884045
97a0852e
5624cc6b
53e2144c
92491000
1242e798
51b4f442
92491000
ecdfa97e
475a9e19
bf8e149a
5624cc6b
a62fbe65
92491000
44faf7ea
1eca54ac
92491000
f68d0528
dff3c8de
c7d8dd55
da7a3a61
4d620da1
da7a3a61
17cb4fa7
fb6032d0
18373a4d
dff3c8de
45884045
e73df129
ffea27a2
475a9e19
accba42a
00df80b5
f68d0528
dff3c8de
c7d8dd55
da7a3a61
51b4f442
e4df3df1
be5ca973
d5deb102
d701301b
2e0cfa08
ac1d2657
da7a3a61
3ed80dc1
b6748acf
5ab4a99a
4fcd7822
302b162f
646aec6a
3ed80dc1
4479e65c
0a673662
13967a07
5b3170e8
314f49d3
9abd59f6
da7a3a61
fe566c75
9abd59f6
dff3c8de
c3974959
c532b0b4
c6a3fa30
c07f3ec1
da7a3a61
ed47c52f
c07f3ec1
dff3c8de
4e76786d
26660e32
9abd59f6
dff3c8de
ed47c52f
9abd59f6
da7a3a61
54302623
0ec14858
ea72c529
dff3c8de
eb4a858c
c3974959
5043e1a7
ed7f73a1
4484b5de
88d05690
0a673662
ea06d3e8
c25cb08e
9033f2eb
3bf51c71
f9b3160e
7acd61cb
2d6ac9e4
3bf51c71
76d016de
0de9fbde
4e4471b1
c9ee9369
12e93373
cd9dffcf
6051c46a
1f00ef18
12e93373
553f5669
4ada98d7
da7a3a61
1f00ef18
f08c91d1
da7a3a61
c8a5e4cf
14d8b0f1
e1bcd4aa
9395214d
fbc1154e
6b5b7400
1d82ec5d
2225484b
a9ca298b
d644908f
68bc0a62
dff3c8de
f172b9d2
6f231e91
d918cfda
ae56ffb4
3ac2eafb
dff3c8de
45884045
474ad092
ee9e9ddc
da6a7ad4
00797a0a
69e1d378
8434545d
e503f57e
55fa5e0a
475a9e19
ac4d53fb
8ee31d5c
f68d0528
dff3c8de
c7d8dd55
da7a3a61
a62fbe65
599dd051
3996e12a
d5deb102
d778f591
39d4dd14
62819871
d158a8e7
bc018b2f
da7a3a61
53e2144c
f84a9e2d
4baa7483
d5deb102
c8617587
39d4dd14
db57a678
57e0a37a
360ed152
da7a3a61
69e1d378
ee9e9ddc
0113283a
00797a0a
1eca54ac
682df5c6
4d620da1
da7a3a61
64c79fe4
4d3c8fd4
3cead07b
12e93373
553f5669
4ada98d7
dff3c8de
1f00ef18
c355b157
dff3c8de
7b2ceea0
dff3c8de
2efda6fa
dff3c8de
d68f2b43
dff3c8de
ff43acb2
dff3c8de
2a746a72
dff3c8de
3b1af1f0
dff3c8de
2b1d588b
17ffeea5
cdf7dd4c
dff3c8de
942eef97
dff3c8de
63025da5
dff3c8de
eccdd777
dff3c8de
34f1776c
dff3c8de
e1bcd4aa
dff3c8de
fbc1154e
dff3c8de
12e93373
54878037
1f00ef18
12e93373
646aec6a
1f00ef18
3ac2eafb
dff3c8de
2e53f4a3
dff3c8de
8ec26d9e
dff3c8de
6b89f042
dff3c8de
893ec0a5
dff3c8de
9de40a79
dff3c8de
ac82e882
da7a3a61
4d620da1
da7a3a61
7566912f
302b162f
fc59e8d8
315da753
4479e65c
302b162f
4fb91930
3acffb84
4479e65c
4fcd7822
c30b469b
9a24470c
70e1b76e
54302623
ffc58f90
98146e5b
c3974959
de8e5d19
9311715b
f0cdefbf
c50bda85
70e1b76e
3bf51c71
966a115a
5ca087ab
c9ee9369
12e93373
cd9dffcf
6051c46a
1f00ef18
12e93373
553f5669
8c423499
1f00ef18
dff3c8de
81b6a52a
b09a9cbf
c017d86e
54a518e5
72a3ba7a
0419c6b8
6f7c2c4b
538397cb
1e2c54a8
d4ab8acc
f4bac9b1
aaf135b5
3bf51c71
f0cdefbf
aefd8c6d
38c0aba5
f5e0d74b
341c541d
be4ffcaf
c9ee9369
12e93373
cd9dffcf
6051c46a
1f00ef18
12e93373
553f5669
8c423499
1f00ef18
b09a9cbf
c017d86e
54a518e5
72a3ba7a
0419c6b8
a5e9d1c2
9311715b
d4ab8acc
f4bac9b1
12e93373
fe8bc401
c8a5e4cf
da7a3a61
1f00ef18
302b162f
fe8bc401
28ec5abb
4479e65c
8441f5c2
29cc20c2
12e93373
cf3c97b1
4d3c8fd4
fc9c1635
1f00ef18
302b162f
c2859c83
ba99c5bc
4479e65c
4fcd7822
12e93373
fb6032d0
4d3c8fd4
da7a3a61
1f00ef18
9d7e8f4b
0764da42
54302623
a43bdc80
04782d7b
f68d0528
c877f3d5
20b35c21
699ab2a7
da7a3a61
302b162f
fb8f1dfa
89dd418b
4479e65c
302b162f
e65228f4
322b76b2
4479e65c
4fcd7822
302b162f
e65228f4
982ab61a
4479e65c
13967a07
302b162f
fb6032d0
40890f84
4479e65c
8302048d
302b162f
26adb352
40890f84
4479e65c
4484b5de
2d6ac9e4
dff3c8de
d2fbcf8b
8c015394
598c8355
af575acf
24210435
b6748acf
bafc2fe8
acbaecab
90323a84
b5ac179d
c07f3ec1
e65228f4
b5ac179d
41e23522
76391384
887cbf3a
c07f3ec1
dff3c8de
8a285a61
4da5465f
b18299c9
42d592c1
76391384
54302623
95917541
b9282fe5
52d93581
a8267c84
b9282fe5
f306f821
c2dde7bb
eccb4f31
ff08bcc1
b6748acf
bafc2fe8
0c312024
54a518e5
9ae9f028
9033f2eb
e65228f4
b6748acf
9ae9f028
eccb4f31
03c2476b
5c3faa76
aaf135b5
dff3c8de
9ae9f028
b6748acf
d68f2b43
d1161ab2
54a518e5
a9b2b8cb
a46f1d74
da7a3a61
4da5465f
4bc0d879
f14e006e
13967a07
302b162f
8f5b0c27
40890f84
4479e65c
8302048d
302b162f
6f071fef
40890f84
4479e65c
4484b5de
2d6ac9e4
dff3c8de
d2fbcf8b
6314b919
3ac2eafb
da7a3a61
598c8355
721d9969
24210435
b6748acf
bafc2fe8
bea5b347
90323a84
d8c2a1d2
c07f3ec1
e65228f4
d8c2a1d2
41e23522
76391384
3779e1be
c07f3ec1
dff3c8de
8a285a61
38ad5767
ef761f8f
c1f12801
76391384
54302623
8076dfb8
699ab2a7
dff3c8de
98146e5b
52d93581
ffb21ec0
e18e4080
f306f821
64653808
eccb4f31
ff08bcc1
b6748acf
bafc2fe8
56ed5247
54a518e5
27d5db8c
9033f2eb
e65228f4
b6748acf
27d5db8c
eccb4f31
03c2476b
69a8a79f
aaf135b5
dff3c8de
27d5db8c
b6748acf
d68f2b43
cdaf8f3c
54a518e5
a9b2b8cb
a46f1d74
da7a3a61
38ad5767
9490aff3
7b2ceea0
2bd3f515
c355b157
54878037
302b162f
4357f817
16997c65
4479e65c
bc70660a
181171ae
c4348474
520ac623
fdbd6973
b4b24c65
520ac623
302b162f
8107474e
16997c65
4479e65c
b6748acf
dc030ddc
0b526c15
8a8457f1
699ab2a7
da7a3a61
39d4dd14
33c01765
1cf0b8f9
da7a3a61
dc660cf0
39d4dd14
8a06d7bd
1cf0b8f9
da7a3a61
4cbd1371
0b526c15
dc030ddc
39d4dd14
9511041c
1cf0b8f9
da7a3a61
ef123fe4
bda1f931
e161872f
cc73fa7e
da7a3a61
3c9905d1
c6c6c2be
9d3ca340
d8f110d3
da7a3a61
3c9905d1
c6c6c2be
b106d214
52247186
da7a3a61
3c9905d1
be784faf
da7a3a61
4fbd85ff
12e93373
553f5669
043cff6a
1f00ef18
de1aeaed
11753e45
aa52e3be
8946928c
6f5396b3
9e708f0d
17cb4fa7
79e59986
d40a8fba
9396e993
d954da8e
39d4dd14
289f2d56
e88ee863
c6f75800
2965f59e
31174c53
ba338ee2
1cfb3fab
850154ff
cc13504c
c1d39902
39d4dd14
6889eca2
c6f75800
2965f59e
ba338ee2
feb0171b
b2885d1d
4401bb25
559d4fad
d990e438
559d4fad
e5db5517
24c628ce
3bacbea9
fe8bc401
fe8bc401
17cb4fa7
fb6032d0
1e1275da
554835df
1aae2681
1e1275da
0e76cecf
22f3bfdc
e1a75991
11753e45
6b737736
33353cc2
432a25b0
fe8bc401
33353cc2
39d4dd14
dff3c8de
a938689e
7adb0142
17cb4fa7
fb6032d0
e35fed5e
4b47a676
4702d2bc
0aa7f42e
ded61c0a
2bd3f515
1f00ef18
81bfb004
96041052
15958526
7bcd28e9
f4ef0ab5
7dc55fed
3c1caaf7
4fb91930
c6480999
89f03727
2b748299
29409783
d4714fce
89cd110b
cd9dffcf
a8c513a8
919ac325
8e8f4ae8
c86df7bc
fdb58004
6211f93d
4fb91930
1242029c
ed0dc5b2
ce743963
34158995
b481044a
ac9f98f5
cd9dffcf
9721f398
f7bc7ed6
a5cf4283
ac5788cf
877c45e3
863d970d
7eb5c83e
cd9dffcf
0f9417a0
89f03727
af9ce895
34158995
23f2aea9
134908dc
95cb2f65
4fb91930
c15f9dbf
cf41a1e8
7bbbf03a
ac5788cf
b9de882a
39540ff0
c9694d9c
18d24789
09bc27ca
8c53985c
b0a8ab10
6b5b7400
a594f7cb
6b5b7400
c4277a28
b0a8ab10
6b4cdb43
a594f7cb
5489190b
302b162f
8107474e
1a7bc253
bfab7206
c02daf97
839e032f
4a252df6
4479e65c
35465e54
ee9e9ddc
26db6ff6
b5b2af10
25992658
8b398a83
bc5d4720
b3d0a762
7044739f
b9b1a1ec
0fc3cd56
08ff9270
20fd4639
2139c982
0438d848
d2c570fa
418fb4f8
b7baf150
029e0470
c4c6e97d
46921907
fa6c52fe
fa82dfde
ea13b4fd
f6fcf548
4479e65c
70342a25
5a3196cc
0b5bc104
f6fcf548
4479e65c
c8c8dd7a
730a8d75
c8c8dd7a
064cd7fe
0fe345e4
ed0a434f
6f1850c1
db00072c
ba9f46f1
db00072c
7c28c728
b4ec3817
5546a2a0
5b230199
5546a2a0
b9dee03d
06737103
54a5b90f
f7bc7ed6
e6a215b0
3354da3d
14825abe
c3052358
f7a2b312
e6a215b0
8d23ada6
7347a48a
1f00ef18
02ca414f
a72cec68
2b600f81
646aec6a
860cba18
bb3d0088
db8e3614
68299e18
91bdadac
16915c28
c6544a13
0a5bb5ef
5cbc2fac
15e0b53d
04efd1c1
488714e9
12e93373
1321b889
49bb48b6
1f00ef18
364e8fc5
fc9c1635
0913c576
a34ea0ac
4a79aa29
3bacbea9
0e6cefab
39d4dd14
33348a53
3bacbea9
d99a2943
dd36c2ec
d0707c16
eda3c92a
1f00ef18
81dd61be
608e6d3b
4204b4ec
de86067e
7bcd28e9
f75ae7b1
05fc6284
ee9e9ddc
8fc5ba79
e639ff7c
ea13b4fd
f6fcf548
4479e65c
db774340
b8de7514
0b5bc104
f6fcf548
4479e65c
234bc10d
730a8d75
ac3d718c
cac6af62
1a6e473d
b9dee03d
7b94b1ae
c02daf97
a2167798
4479e65c
7b94b1ae
d30992c5
3354da3d
7761cac3
0b5bc104
a2167798
4479e65c
7761cac3
52db7a02
b9dee03d
7e3d17cb
ee9e9ddc
e09fe1e4
67b7f4fa
3354da3d
95929d03
ee9e9ddc
96904cbe
1a9d0d42
ee9e9ddc
dc198249
b90be122
b8b436a1
2bd3f515
02ca414f
2fe9baf5
e8bf64ce
b5417d32
74e0a615
8c00447a
2fe0a0ea
02ca414f
c4603c70
f1656fdd
861942cf
9acab2bc
39d4dd14
86d5c97b
c6f75800
2965f59e
c6f75800
fe8bc401
a397a9e2
d0707c16
2bd3f515
1f00ef18
f1656fdd
861942cf
2910b426
f4074b0b
a397a9e2
98cbccd9
1f00ef18
be570a21
e6a215b0
d5e84be1
5546a2a0
ee9e9ddc
89cd110b
f7a2b312
7fca8e17
04efd1c1
7fca8e17
1f00ef18
251d4f68
c64e2263
3d94d714
1f00ef18
364e8fc5
646aec6a
364e8fc5
fc9c1635
81dd61be
608e6d3b
6d40e5c1
364e8fc5
47dc99a3
deb60af0
2bd3f515
69e1d378
302b162f
fd6b28f0
b4ec0173
4479e65c
decedb16
d59bcd8b
12e93373
c8a5e4cf
7948d58d
2bd3f515
1f00ef18
9d1edbbd
302b162f
fd6b28f0
b4ec0173
4479e65c
fc6c7880
47b38e9b
12e93373
c8a5e4cf
7948d58d
7215c83c
1f00ef18
9d1edbbd
12e93373
c8a5e4cf
980a9dd9
1f00ef18
311526e6
a0341bb0
bc843e0c
56f419e3
d874f629
c34170fd
e5ac63a8
4e4471b1
002f83fb
710d8809
0b5bc104
0aa7f42e
e4237da5
ec15d9c1
d06f4d68
c338b1c2
d06f4d68
12e93373
fc59e8d8
d06f4d68
1f00ef18
4479e65c
8d23ada6
185716e0
1f00ef18
f7a2b312
c010af3f
1f00ef18
fe8bc401
33c3e6ec
5ee1e791
4f2fddc1
9fe3aeac
3bacbea9
39d4dd14
016ca8fd
d99a2943
ee9e9ddc
2198363a
b5b2af10
25992658
d1e7ec62
d67c3b3d
b3d0a762
7044739f
b9b1a1ec
55a768dc
10bcbf81
20fd4639
2139c982
0fe345e4
5c0d8426
c0a74c61
b4ec3817
5546a2a0
5b230199
5546a2a0
ee9e9ddc
c6ba242b
5ac5eee3
dd36c2ec
d0707c16
eda3c92a
1f00ef18
d5e84be1
5546a2a0
6e1e9f87
ddef289b
a1fd0b6b
d1692016
a9b2b8cb
a9402d12
07a708e8
ee9e9ddc
38eaf876
b7ec1603
87ef5186
ee9e9ddc
41d41466
251d4f68
d7790d07
81dd61be
608e6d3b
c36d7225
860cba18
c80ad980
4e0279bd
68299e18
91bdadac
16915c28
c6544a13
f1656fdd
861942cf
baa9e196
0438d848
9e4a4d18
418fb4f8
b7baf150
029e0470
79555231
1f21fc7b
fa6c52fe
fa82dfde
f9f0895c
0fe345e4
994fe000
1f6f072d
f2ca6dd4
7215c83c
7a44da2e
7acd443b
1f00ef18
be570a21
f2243cb5
553f5669
47dc99a3
6e1e9f87
c355b157
fb8f1dfa
bcec6def
f35d836f
302b162f
fd6b28f0
70a5a0ef
4479e65c
12e93373
3b766c79
3adeb704
1f00ef18
7948d58d
33c63d17
7e35c02c
c8a5e4cf
c91ed772
723b60ac
95f37819
c9174ef6
f172b9d2
8107474e
d918cfda
ae56ffb4
94058c0f
32827c67
6ceb77cd
cc69490c
2efda6fa
8a81e005
a9402d12
1321b889
fc59e8d8
8f5b0c27
1321b889
eac897d9
fc59e8d8
07a708e8
1e1275da
85b67cc4
d4f17f43
2f35e2f2
6ceb77cd
8269a9c1
2efda6fa
f493acad
d68f2b43
47dc99a3
7474c13a
fc59e8d8
8f5b0c27
7474c13a
eac897d9
fc59e8d8
07a708e8
1e1275da
cf3d5fab
d4f17f43
2f35e2f2
6ceb77cd
106edd60
2efda6fa
41464006
d68f2b43
7215c83c
7bcf9cad
fc59e8d8
8f5b0c27
7bcf9cad
eac897d9
fc59e8d8
07a708e8
1e1275da
b5259cf6
d4f17f43
2f35e2f2
6ceb77cd
22f85ecf
2efda6fa
ef69d085
d68f2b43
2bd3f515
7bd351f5
fc59e8d8
8f5b0c27
7bd351f5
eac897d9
fc59e8d8
07a708e8
1e1275da
0951f643
d4f17f43
2f35e2f2
302b162f
9cdbc3a1
ffa81206
13967a07
302b162f
e65228f4
ffa81206
8302048d
3d44feb7
fba89ef9
4484b5de
302b162f
fd6b28f0
70a5a0ef
c25cb08e
4479e65c
598c8355
12e93373
e65228f4
3adeb704
1f00ef18
76d016de
12e93373
3b766c79
3adeb704
1f00ef18
c3974959
12e93373
dabf77e3
3b3e8ffb
1f00ef18
88d05690
f9f0895c
3b3e8ffb
1f00ef18
7e35c02c
302b162f
1321b889
1a7bc253
302b162f
2225484b
e431cbd8
2fe0a0ea
da23f14f
c1d39902
39d4dd14
ae150d43
6009b9fb
b72cd0f3
062f48f2
c8a5e4cf
c91ed772
723b60ac
95f37819
c9174ef6
f172b9d2
8107474e
d918cfda
ae56ffb4
2efda6fa
26526125
d68f2b43
2bd3f515
066ff3f4
fc59e8d8
8f5b0c27
066ff3f4
eac897d9
fc59e8d8
07a708e8
1e1275da
f89d689c
d4f17f43
2f35e2f2
fb34d543
ebec3b3f
7e0bfe6a
c8a5e4cf
e65228f4
1d82ec5d
3e480861
a9ca298b
d9ad6cad
c9174ef6
f172b9d2
31335253
d918cfda
ae56ffb4
1e1275da
3f683ddd
cc931168
2efda6fa
54878037
05019824
553f5669
8f5b0c27
05019824
1e1275da
17bbe482
5221b18a
2f35e2f2
3084c512
9abd59f6
c877f3d5
ea72c529
ba9f46f1
41e23522
1ef8836e
450f9aca
1ef8836e
e04c1d27
94d5dc2c
90049375
4479e65c
7e0bfe6a
92020cb0
7e0bfe6a
e04c1d27
ebec3b3f
f9571bd3
c8a5e4cf
e65228f4
1d82ec5d
15a3ee1c
a9ca298b
67f38a14
c9174ef6
f172b9d2
31335253
d918cfda
ae56ffb4
1e1275da
b6ac2b81
7bf92669
2efda6fa
54878037
8395f829
553f5669
8f5b0c27
8395f829
1e1275da
179185fb
5221b18a
2f35e2f2
3084c512
9abd59f6
c877f3d5
ea72c529
ba9f46f1
41e23522
3f3fd896
450f9aca
3f3fd896
671fc6e4
94d5dc2c
90049375
4479e65c
f9571bd3
92020cb0
f9571bd3
671fc6e4
0ec26d01
282120ca
520516c8
95c690b2
b091bb7e
3939a9d4
92020cb0
2a47412b
94d5dc2c
90049375
4479e65c
73ba4019
8f5b0c27
fcc0f9d0
0ec26d01
13967a07
95c690b2
8302048d
f277d795
3ecbc207
8f76bb29
29ebb7eb
695ce76f
839b33a3
759de6c0
f277d795
6451f6e3
29ebb7eb
d28a6fb2
df649572
1666a7a1
7215c83c
759de6c0
f277d795
36e242f9
29ebb7eb
36e242f9
1666a7a1
2bd3f515
759de6c0
1666a7a1
2bd3f515
522825d9
bd7590c7
344d1ec6
805e8dbc
555658ab
ac3d718c
ca147bd7
76d016de
e22a3882
88d05690
2cf90d1a
0be9fdde
e6f55141
a13d6d15
c8a5e4cf
e65228f4
1d82ec5d
3e480861
a9ca298b
d9ad6cad
c9174ef6
f172b9d2
3e8c2261
d918cfda
ae56ffb4
1e1275da
2d575242
d06c7598
2efda6fa
54878037
31c74efe
553f5669
8f5b0c27
31c74efe
1e1275da
c6e4af60
5221b18a
2f35e2f2
3084c512
9abd59f6
c877f3d5
ea72c529
ba9f46f1
41e23522
2d748de5
450f9aca
2d748de5
a72e48c7
94d5dc2c
90049375
4479e65c
a13d6d15
92020cb0
a13d6d15
a72e48c7
e6f55141
3c2dbedf
c8a5e4cf
e65228f4
1d82ec5d
3e480861
a9ca298b
d9ad6cad
c9174ef6
f172b9d2
3e8c2261
d918cfda
ae56ffb4
1e1275da
5ca2aad8
3f33ced5
2efda6fa
54878037
06006053
553f5669
8f5b0c27
06006053
1e1275da
8157b4d5
5221b18a
2f35e2f2
3084c512
9abd59f6
c877f3d5
ea72c529
ba9f46f1
41e23522
1a977679
450f9aca
1a977679
ca2aaab3
94d5dc2c
90049375
4479e65c
3c2dbedf
92020cb0
3c2dbedf
ca2aaab3
e6f55141
514fd45d
c8a5e4cf
e65228f4
1d82ec5d
15a3ee1c
a9ca298b
67f38a14
c9174ef6
f172b9d2
3e8c2261
d918cfda
ae56ffb4
1e1275da
0e17700d
6b1154fa
2efda6fa
54878037
e960cff9
553f5669
8f5b0c27
e960cff9
1e1275da
3e9ce4a5
5221b18a
2f35e2f2
3084c512
9abd59f6
c877f3d5
ea72c529
ba9f46f1
41e23522
12d122dc
450f9aca
12d122dc
e849f618
94d5dc2c
90049375
4479e65c
514fd45d
92020cb0
514fd45d
e849f618
e6f55141
ef504fee
c8a5e4cf
e65228f4
1d82ec5d
15a3ee1c
a9ca298b
67f38a14
c9174ef6
f172b9d2
3e8c2261
d918cfda
ae56ffb4
1e1275da
49f74971
cb94b70a
2efda6fa
54878037
1338b2dc
553f5669
8f5b0c27
1338b2dc
1e1275da
e5b951a1
5221b18a
2f35e2f2
3084c512
9abd59f6
c877f3d5
ea72c529
ba9f46f1
41e23522
9bf96967
450f9aca
9bf96967
b6c91274
94d5dc2c
90049375
4479e65c
ef504fee
92020cb0
ef504fee
b6c91274
12e93373
5006d247
727a162d
1f00ef18
7e35c02c
302b162f
1321b889
1a7bc253
302b162f
2225484b
fed5f3c1
f8833708
2fe0a0ea
39d4dd14
5fb5d3c4
c49ec89f
b47fafe3
b1fd71c7
c8a5e4cf
e65228f4
1d82ec5d
3e480861
a9ca298b
d9ad6cad
c9174ef6
f172b9d2
e8e286bc
d918cfda
ae56ffb4
1e1275da
d12f55d9
55163966
2efda6fa
54878037
81a96dfa
553f5669
8f5b0c27
81a96dfa
1e1275da
9d69f542
5221b18a
2f35e2f2
b47fafe3
2809183b
c8a5e4cf
e65228f4
1d82ec5d
15a3ee1c
a9ca298b
67f38a14
c9174ef6
f172b9d2
e8e286bc
d918cfda
ae56ffb4
1e1275da
40f6c146
dd39a270
2efda6fa
54878037
614addf0
553f5669
8f5b0c27
614addf0
1e1275da
5705365c
5221b18a
2f35e2f2
abe3af26
f4e5a4ce
8f5b0c27
7fab403d
a8e77fdd
13967a07
13467f7e
8302048d
1e6e41ad
5c38dd8d
3384d16c
5c38dd8d
db6f762d
f277d795
5c38dd8d
29ebb7eb
5c38dd8d
ba7b8b19
c02daf97
90049375
4479e65c
f4e5a4ce
ba7b8b19
302b162f
1321b889
1a7bc253
302b162f
2225484b
be3c971a
c1d39902
39d4dd14
e1daf2ef
c49ec89f
5331fe80
87d7433c
c8a5e4cf
e65228f4
1d82ec5d
3e480861
a9ca298b
d9ad6cad
c9174ef6
f172b9d2
3e8c2261
d918cfda
ae56ffb4
1e1275da
5f5ec45a
94a1038d
2efda6fa
54878037
1f7e91b8
553f5669
8f5b0c27
1f7e91b8
1e1275da
f5c3a2c9
5221b18a
2f35e2f2
5331fe80
6b27fc5a
c8a5e4cf
e65228f4
1d82ec5d
15a3ee1c
a9ca298b
67f38a14
c9174ef6
f172b9d2
3e8c2261
d918cfda
ae56ffb4
1e1275da
e9179dc2
e2dabee0
2efda6fa
54878037
95d3fc0c
553f5669
8f5b0c27
95d3fc0c
1e1275da
44afb9b7
5221b18a
2f35e2f2
90049375
4bbb3b76
ee9e9ddc
d95ab1cd
b7ec1603
2efda6fa
e12c39da
2b1d588b
625245e5
7ea45f91
c69203e7
87ef5186
7d7592ea
88d05690
3d263c32
33a10394
0d9a354d
bd630942
273d849e
88d05690
57e57348
93553344
2d6ac9e4
4ecb2945
bd630942
273d849e
2d6ac9e4
4ecb2945
805a578c
6b8b66dc
958b6acf
88d05690
f2650044
0ad50280
f5ccbc0a
88d05690
ac3d718c
41852e01
f5ccbc0a
88d05690
7ebb80cb
b8046c78
2d6ac9e4
fc59e8d8
85caf7c8
273d849e
8ba8dd67
671df252
033ae1f6
273d849e
76e7ff5b
acc76851
ebc9dd5c
5b1584d4
013fef88
32c88ff2
152ebc22
65dc49c3
139f1d08
302b162f
c2859c83
28ec5abb
4479e65c
8302048d
e3d87865
302b162f
c2859c83
5a86eb71
4479e65c
5043e1a7
c7181318
65dc49c3
302b162f
c2859c83
5a86eb71
4479e65c
8302048d
e3d87865
5043e1a7
c7181318
8302048d
302b162f
c2859c83
28ec5abb
4479e65c
26aecba4
e77a2684
38aeb915
cca48bd8
c7181318
76391384
b0ecd9fb
3a6ab09e
f9b3160e
f3cba4dd
76391384
3a6ab09e
72b54980
171e900b
b0ecd9fb
ef0a6624
517672ce
88d05690
3d263c32
ac2f65e6
25fd3bc5
88d05690
ac3d718c
5130b5e6
d1935603
88d05690
f2650044
ed4e9fd0
71a9a17e
6f6b93b9
ed4e9fd0
aac5fabb
b0ecd9fb
a9b2b8cb
07a708e8
25fd3bc5
71a9a17e
6f6b93b9
c98d20f5
aac5fabb
b0ecd9fb
b8a83317
6ddfdb41
279ab89a
5afa6174
88d05690
ac3d718c
70181d4d
de6f4c5b
88d05690
f2650044
41e03b6f
71a9a17e
6f6b93b9
41e03b6f
aac5fabb
f710fbe4
6e80ede8
59514875
dbb4ce2e
ebc9dd5c
7dec1a1e
67745422
9b838663
152ebc22
d09fe4ba
e0d735a8
302b162f
c2859c83
28ec5abb
4479e65c
c25cb08e
c1c94747
302b162f
c2859c83
5a86eb71
4479e65c
5043e1a7
bc56d56e
d09fe4ba
302b162f
c2859c83
5a86eb71
4479e65c
c25cb08e
c1c94747
5043e1a7
bc56d56e
c25cb08e
302b162f
c2859c83
28ec5abb
4479e65c
26aecba4
f9b3160e
c25cb08e
a8dff29b
13dd925d
bc56d56e
c25cb08e
a052a391
7169288b
64ebf38d
3a6ab09e
88d05690
38954e7d
7d970eef
57e57348
d3cb0196
b0ecd9fb
f2650044
a49d8942
b0ecd9fb
c6c6c2be
a49d8942
b0ecd9fb
3d263c32
c25cb08e
24b81814
aac5fabb
a052a391
e7bd1d2d
64ebf38d
3a6ab09e
88d05690
435034c3
86677dae
57e57348
3b7cdf5f
b0ecd9fb
a3239737
c4295ef5
b0ecd9fb
ade32163
c4295ef5
b0ecd9fb
ab417d03
c25cb08e
88d05690
c6c6c2be
3fcefdfb
c91f1424
88d05690
5a07cd0e
0b13f422
c91f1424
88d05690
6f7c2c4b
89a37f5b
c91f1424
76d016de
bafc2fe8
7d7797b4
76d016de
331c97c2
a029f66b
6e80ede8
fa8ade2e
e771c1e0
cbbf4a27
aa60e9d2
aac5fabb
4b3507de
598c8355
d325489a
0ba0bde0
76d016de
88d05690
3d263c32
58f7171f
44caa2a4
88d05690
ac3d718c
c8cefef0
97fa786d
b0ecd9fb
a9b2b8cb
07a708e8
44caa2a4
b0ecd9fb
b8a83317
6ddfdb41
279ab89a
f2e71c97
ce4652f0
9d4e6c1b
f6fae4ef
4b60dd14
38cb514d
c64e2263
7fca8e17
1f00ef18
ea13b4fd
9ee61499
4479e65c
ebc91381
97303d7c
03ff7b8e
fee6c1fb
a911ac0b
a0f0a05e
f9f0895c
ae8483fd
2bd3f515
1f00ef18
084fd715
a7669c74
cea6a968
f7a2b312
c291cf91
1f00ef18
084fd715
6820055a
17cb4fa7
45beb1fd
1e1275da
f525e5dd
22f3bfdc
7ab0c0d1
3d17e08a
12e93373
553f5669
8748a2a4
1f00ef18
1f7d40fd
e288baa3
4479e65c
76391384
7fc56379
b5253241
d4d330bc
5ab4a99a
c25cb08e
a052a391
ef2a4c62
03c2476b
c25cb08e
7fc56379
c8b81104
c25cb08e
71a9a17e
1e1275da
3ee29028
1c9b24ae
f0cdefbf
267f94e6
12e93373
553f5669
043cff6a
1f00ef18
172444aa
fe8bc401
a9ca298b
0fb95966
172444aa
24c628ce
57da7a97
9ebb8c3d
29a888e5
ee9e9ddc
7f624cc2
3bacbea9
68f3018b
eaf66720
bc9edaf4
71a9a17e
1e1275da
e2f38486
1c9b24ae
29a888e5
ee9e9ddc
d0cb5db6
3bacbea9
68f3018b
54302623
ac9469df
c54fce1f
3bda8735
e8924933
14e0b797
8f5b0c27
70e1b76e
cca3c4f0
5aca4999
ea72c529
0e836f7e
5fa9a970
7ab0c0d1
3c24d034
b7b50f26
e5ac63a8
b6748acf
e03446bc
c25cb08e
5fa9a970
9033f2eb
3bf51c71
c6c6c2be
8fd2c483
40d51e51
324c9eaa
76d016de
9ee194d4
324c9eaa
be4ffcaf
4699ff47
c25cb08e
12e93373
cd9dffcf
3a51827a
1f00ef18
4b202f24
9a01ed4c
bc9edaf4
7fc56379
1e1275da
99d46458
1c9b24ae
29a888e5
ee9e9ddc
573a4d74
3bacbea9
68f3018b
54302623
1303cddb
c54fce1f
349eb4e5
e8924933
14e0b797
9a24470c
70e1b76e
cca3c4f0
5aca4999
ea72c529
0e836f7e
5fa9a970
24bc7554
c25cb08e
5fa9a970
7fc56379
ade32163
be470c01
1345a02d
458cb3f9
76d016de
bc7fd707
458cb3f9
5ca087ab
4699ff47
c25cb08e
12e93373
cd9dffcf
3a51827a
1f00ef18
4b202f24
3f702d31
043cff6a
24c628ce
3bacbea9
3341f7bd
17cb4fa7
45beb1fd
845d8bc3
9ee61499
4479e65c
c9f0c579
2ada3b17
87077808
df2f9d32
2557276c
ae722fec
cb89dcc6
917e1897
fdcf4ae5
ea06cc3a
f9f0895c
ae8483fd
2bd3f515
1f00ef18
084fd715
bafe9bb4
feaf10f2
f7bc7ed6
c291cf91
1f00ef18
084fd715
e3bdedcf
f7a2b312
c291cf91
1f00ef18
c64e2263
488714e9
1f00ef18
ace05008
17cb4fa7
45beb1fd
ea13b4fd
9ee61499
4479e65c
9b68b4d4
2ada3b17
ace05008
df2f9d32
11753e45
e1a75991
aa52e3be
4f4bfcc5
a3ba2f05
432a25b0
6b737736
12e93373
1321b889
ef84e44e
1f00ef18
98146e5b
92020cb0
d24a3f28
97a51377
a175e6f8
81d7a122
8ee01cfb
ab2e8d10
1d82ec5d
3e480861
12e93373
0964d4bf
a9ca298b
05241648
1f00ef18
1fc6346f
1338b3c2
d24a3f28
1d82ec5d
15a3ee1c
12e93373
0964d4bf
a9ca298b
eda3c92a
1f00ef18
9d4e6c1b
f6fae4ef
d68f2b43
2dd2db61
e9f83f44
07a708e8
d68f2b43
68af1c82
eac897d9
e65228f4
07a708e8
d68f2b43
fae0ce0f
e9f83f44
07a708e8
d68f2b43
d9d1ce57
e9f83f44
07a708e8
d68f2b43
d2fe562d
e9f83f44
07a708e8
d68f2b43
5546a2a0
eac897d9
e65228f4
07a708e8
d68f2b43
b025c01b
e9f83f44
07a708e8
d68f2b43
15e0b53d
eac897d9
553f5669
07a708e8
f6fae4ef
d68f2b43
15e0b53d
e9f83f44
07a708e8
d68f2b43
68af1c82
eac897d9
e65228f4
07a708e8
d68f2b43
fae0ce0f
e9f83f44
07a708e8
d68f2b43
d9d1ce57
eac897d9
e65228f4
07a708e8
d68f2b43
d2fe562d
eac897d9
e65228f4
07a708e8
d68f2b43
5546a2a0
eac897d9
e65228f4
07a708e8
d68f2b43
b025c01b
e9f83f44
07a708e8
d68f2b43
2dd2db61
eac897d9
553f5669
07a708e8
f6fae4ef
d68f2b43
15e0b53d
e9f83f44
07a708e8
d68f2b43
2dd2db61
eac897d9
e65228f4
07a708e8
d68f2b43
fae0ce0f
e9f83f44
07a708e8
d68f2b43
d9d1ce57
e9f83f44
07a708e8
d68f2b43
d2fe562d
eac897d9
e65228f4
07a708e8
d68f2b43
5546a2a0
eac897d9
e65228f4
07a708e8
d68f2b43
b025c01b
e9f83f44
07a708e8
d68f2b43
68af1c82
eac897d9
553f5669
07a708e8
f6fae4ef
d68f2b43
15e0b53d
e9f83f44
07a708e8
d68f2b43
2dd2db61
eac897d9
e65228f4
07a708e8
d68f2b43
68af1c82
eac897d9
e65228f4
07a708e8
d68f2b43
d9d1ce57
e9f83f44
07a708e8
d68f2b43
d2fe562d
e9f83f44
07a708e8
d68f2b43
5546a2a0
eac897d9
e65228f4
07a708e8
d68f2b43
b025c01b
e9f83f44
07a708e8
d68f2b43
cdaf8f3c
eac897d9
e65228f4
07a708e8
d68f2b43
d1161ab2
e9f83f44
07a708e8
d68f2b43
fae0ce0f
eac897d9
553f5669
07a708e8
f6fae4ef
d68f2b43
15e0b53d
e9f83f44
07a708e8
d68f2b43
2dd2db61
e9f83f44
07a708e8
d68f2b43
68af1c82
eac897d9
e65228f4
07a708e8
d68f2b43
fae0ce0f
e9f83f44
07a708e8
d68f2b43
d2fe562d
e9f83f44
07a708e8
d68f2b43
5546a2a0
eac897d9
e65228f4
07a708e8
d68f2b43
b025c01b
e9f83f44
07a708e8
d68f2b43
d9d1ce57
eac897d9
553f5669
07a708e8
f6fae4ef
d68f2b43
15e0b53d
eac897d9
e65228f4
07a708e8
d68f2b43
2dd2db61
eac897d9
e65228f4
07a708e8
d68f2b43
68af1c82
eac897d9
e65228f4
07a708e8
d68f2b43
fae0ce0f
e9f83f44
07a708e8
d68f2b43
d9d1ce57
e9f83f44
07a708e8
d68f2b43
5546a2a0
eac897d9
e65228f4
07a708e8
d68f2b43
b025c01b
e9f83f44
07a708e8
d68f2b43
d2fe562d
eac897d9
553f5669
07a708e8
f6fae4ef
d68f2b43
15e0b53d
e9f83f44
07a708e8
d68f2b43
2dd2db61
eac897d9
e65228f4
07a708e8
d68f2b43
68af1c82
eac897d9
e65228f4
07a708e8
d68f2b43
fae0ce0f
e9f83f44
07a708e8
d68f2b43
d9d1ce57
e9f83f44
07a708e8
d68f2b43
d2fe562d
eac897d9
e65228f4
07a708e8
d68f2b43
b025c01b
e9f83f44
07a708e8
d68f2b43
5546a2a0
eac897d9
553f5669
07a708e8
f6fae4ef
d68f2b43
15e0b53d
e9f83f44
07a708e8
d68f2b43
2dd2db61
e9f83f44
07a708e8
d68f2b43
68af1c82
eac897d9
e65228f4
07a708e8
d68f2b43
fae0ce0f
e9f83f44
07a708e8
d68f2b43
d9d1ce57
e9f83f44
07a708e8
d68f2b43
d2fe562d
eac897d9
e65228f4
07a708e8
d68f2b43
5546a2a0
eac897d9
e65228f4
07a708e8
d68f2b43
cdaf8f3c
e9f83f44
07a708e8
d68f2b43
d1161ab2
eac897d9
e65228f4
07a708e8
d68f2b43
b025c01b
eac897d9
553f5669
07a708e8
f6fae4ef
d68f2b43
fae0ce0f
eac897d9
e65228f4
07a708e8
d68f2b43
b025c01b
e9f83f44
07a708e8
d68f2b43
d1161ab2
e9f83f44
07a708e8
d68f2b43
cdaf8f3c
eac897d9
553f5669
07a708e8
f6fae4ef
d68f2b43
fae0ce0f
e9f83f44
07a708e8
d68f2b43
b025c01b
eac897d9
e65228f4
07a708e8
d68f2b43
cdaf8f3c
e9f83f44
07a708e8
d68f2b43
d1161ab2
eac897d9
553f5669
07a708e8
f6fae4ef
302b162f
8107474e
16997c65
4479e65c
84826cf9
df26c0e8
98146e5b
0c2f05bd
8f5b0c27
625245e5
064c6df5
8e2a8fcb
1df3c152
6e1e9f87
d68f2b43
15e0b53d
8f5b0c27
a65239b9
080bcb4e
5994a4e3
9abd59f6
31c74efe
684574dd
1e1275da
660dc34a
24c628ce
3bacbea9
3717c074
1e1275da
6e87c649
13dd925d
24c628ce
3bacbea9
036c7def
d68f2b43
d9d1ce57
8f5b0c27
a65239b9
080bcb4e
a65239b9
9abd59f6
e960cff9
684574dd
1e1275da
c04e43ca
24c628ce
3bacbea9
3717c074
1e1275da
1200857a
13dd925d
24c628ce
3bacbea9
036c7def
d68f2b43
2dd2db61
8f5b0c27
a65239b9
080bcb4e
5994a4e3
9abd59f6
06006053
684574dd
1e1275da
555ac9b4
24c628ce
3bacbea9
3717c074
1e1275da
e4372574
69027101
24c628ce
3bacbea9
036c7def
d68f2b43
d2fe562d
8f5b0c27
a65239b9
080bcb4e
a65239b9
9abd59f6
1338b2dc
684574dd
1e1275da
eb8c07bc
24c628ce
3bacbea9
3717c074
1e1275da
007f5910
69027101
24c628ce
3bacbea9
036c7def
0c2f05bd
c25cb08e
c07f3ec1
b0cd4ee4
a052a391
02764796
003f2964
c07f3ec1
eccdd777
a052a391
dbe677f2
b7e3bcc6
c07f3ec1
82e26e03
a052a391
323ec171
dd3dba65
c07f3ec1
e283a6d0
a052a391
1f8b1ba1
9a54af67
c07f3ec1
553f5669
a052a391
c8cbb34f
f7350dbd
c07f3ec1
e175d490
a052a391
cf759a6c
3e0dbc72
c07f3ec1
28a51fcb
a052a391
1ae05576
9317cda1
c07f3ec1
e4f8d1c2
a052a391
f6aeb2b4
64226a9b
2b1d588b
eccdd777
2b1d588b
82e26e03
2b1d588b
28a51fcb
9317cda1
2b1d588b
553f5669
2b1d588b
e175d490
2b1d588b
28a51fcb
2b1d588b
e4f8d1c2
2b1d588b
625245e5
87ef5186
98146e5b
9a24470c
70e1b76e
cca3c4f0
5aca4999
ea72c529
0e836f7e
12e93373
553f5669
8748a2a4
1f00ef18
f0cdefbf
c25cb08e
e5ac63a8
76391384
03c2476b
8e8362a1
d54343c3
ff4311ca
5ca087ab
806ecaca
be4ffcaf
12e93373
cd9dffcf
3a51827a
1f00ef18
4b202f24
8ef1df3d
043cff6a
f6fae4ef
4917f3ab
8a5b7890
fc59e8d8
4cb0dc5b
6ddfdb41
1438b92e
6e1e9f87
eac897d9
fc59e8d8
0d60432f
07a708e8
87ef5186
20b35c21
65effe89
a9b2b8cb
d68f2b43
47dc99a3
07a708e8
bf2f7a79
a9b2b8cb
d68f2b43
7215c83c
07a708e8
25c4e406
a9b2b8cb
d68f2b43
2bd3f515
07a708e8
a8e77fdd
a9b2b8cb
d68f2b43
fae0ce0f
07a708e8
13467f7e
a9b2b8cb
d68f2b43
b025c01b
07a708e8
d5bb1ff6
8a878968
03134c81
5c0d5c62
0ec26d01
5f16f278
aee2f6c5
8a6fc18e
1d0879dc
5a6cc896
95c690b2
8fd584e2
1bda85bd
43fd092e
207ed1b6
93f9c62d
20b35c21
ea13b4fd
f6fcf548
4479e65c
f0214a98
7c7d1c21
0b5bc104
f6fcf548
4479e65c
edf5870a
9914f62c
08a1b07d
ac69db31
08a1b07d
b9dee03d
a98bdeeb
daeb19ed
3354da3d
f03717ea
9914f62c
08a1b07d
ac69db31
08a1b07d
33c3e6ec
5ee1e791
4f2fddc1
9fe3aeac
cd91782d
2eae73db
0fe345e4
5521f58f
b9dee03d
b568c8e1
6f1850c1
db00072c
3354da3d
e19f3748
ba9f46f1
db00072c
5ef7b5b0
b4ec3817
5546a2a0
5b230199
5546a2a0
b9dee03d
240a07ad
f7bc7ed6
7347a48a
1f00ef18
93bc97fd
f7bc7ed6
e6a215b0
1f00ef18
3354da3d
4e14d3de
f7a2b312
7347a48a
1f00ef18
5306b404
f7a2b312
e6a215b0
1f00ef18
8d23ada6
7347a48a
1f00ef18
b9dee03d
a66d5c07
c02daf97
a2167798
4479e65c
a66d5c07
60476072
3354da3d
3051c390
0b5bc104
a2167798
4479e65c
3051c390
a530c6ce
b9dee03d
e39e8659
ee9e9ddc
7fc56379
67b7f4fa
3354da3d
f03717ea
ee9e9ddc
f18e7433
1a9d0d42
ee9e9ddc
24bbcf16
b90be122
42ecff75
575304fb
a0be81d2
9914f62c
08a1b07d
ac69db31
08a1b07d
e6a215b0
69e1d378
ea13b4fd
f6fcf548
4479e65c
e2f053d0
16ceee18
0b5bc104
f6fcf548
4479e65c
76d8ddfa
c02daf97
f6fcf548
4479e65c
e578b92d
76b805bb
ba8fd029
d68bd634
e60971ce
43a61170
d68bd634
e60971ce
d5bccf15
d68bd634
e60971ce
650f7eea
9f366044
e60971ce
b432899d
d68bd634
e60971ce
5f53b988
ee9e9ddc
3bacbea9
5ac5eee3
10794d6f
8d23ada6
d06f4d68
12e93373
fc59e8d8
3ca2f8e0
1f00ef18
4136a268
e8bf64ce
b5417d32
74e0a615
8c00447a
fd3179f8
eb5d823d
0aa7f42e
d06f4d68
12e93373
fc59e8d8
d06f4d68
1f00ef18
0b5bc104
839e032f
4479e65c
b0d8da77
6427bacf
12e93373
4ecb2945
d06f4d68
1f00ef18
1c1338b0
12e93373
fb8f1dfa
49bb48b6
1f00ef18
ee9e9ddc
8b03fc3f
fb07f74e
ee9e9ddc
32020852
aa82402b
302b162f
4357f817
16997c65
302b162f
2225484b
bc70660a
81bfb004
ae809305
0bb1635d
ee9e9ddc
68c7531a
fb07f74e
ee9e9ddc
80e7fc20
aa82402b
302b162f
824f4330
1a7bc253
4479e65c
6dfe8dd3
8593d4e2
3d263c32
5cc11c07
13955912
7f7428eb
8593d4e2
0aa7f42e
6dfe8dd3
1f00ef18
57d97a18
302b162f
f9f3b4eb
16997c65
4479e65c
3d263c32
51aebcc0
fefba39e
12e93373
ba9f46f1
c630c602
12e93373
ab146c38
d5e84be1
2bd3f515
12e93373
1321b889
49bb48b6
1f00ef18
ee9e9ddc
c76047e7
fb07f74e
ee9e9ddc
2ab691c7
aa82402b
8593d4e2
b55beb78
c4348474
d61f04cc
5449c0a7
b4b24c65
d61f04cc
302b162f
8107474e
16997c65
b6748acf
302b162f
2225484b
3bacbea9
6e1e9f87
9311715b
87ef5186
af2062d4
3d263c32
b5c80f02
d978a403
3bacbea9
c0d9d185
c02daf97
b526e2c5
4479e65c
8af6239f
8593d4e2
6d0bcfc2
7f7428eb
e831271b
bfc97920
f7bc7ed6
21631727
1f00ef18
d5128cab
f7bc7ed6
4702d2bc
1f00ef18
ee9e9ddc
2e5fb72c
e639ff7c
81bfb004
c33f5a78
08da18dd
c64e2263
3d94d714
1f00ef18
12e93373
1321b889
c630c602
1f00ef18
ee9e9ddc
0f4b3e53
fb07f74e
ee9e9ddc
448026eb
184349a7
f7a2b312
7fca8e17
04efd1c1
7fca8e17
1f00ef18
04efd1c1
d7790d07
1f00ef18
e5ac63a8
4e4471b1
f865e379
98146e5b
6c688bab
11b66316
12fdbf4a
5925c31c
8fd2c483
ed490630
545da95f
12e93373
cd9dffcf
d1d94103
1f00ef18
4edaf8e8
bf3461b4
ec6fe759
7c851f33
50c12c9d
54a518e5
c8961504
a5516f7f
6ef138e0
b0ecd9fb
547b29ba
a5516f7f
545da95f
9143f77b
b2b1f73d
2d9fb3b0
a5516f7f
12e93373
cd9dffcf
d1d94103
1f00ef18
4edaf8e8
279ab89a
8f88dca9
3bacbea9
05fc6284
54a518e5
3d263c32
b268cd87
3fbb4879
c2377aa3
a22bf231
6f6b93b9
824344f2
fbf27059
2d9fb3b0
a5516f7f
12e93373
cd9dffcf
d1d94103
1f00ef18
4edaf8e8
4b5174f9
4523e4f0
a5516f7f
54a518e5
3d263c32
8c48c389
a5516f7f
279ab89a
8f88dca9
685b26b6
8fd2c483
51a0cac8
d45750ea
48439501
8fd2c483
3c3fe443
d45750ea
bfd4adeb
8fd2c483
56d7cc79
d45750ea
94c476fe
8fd2c483
cd8b379f
d45750ea
9033f2eb
8e9db461
8fd2c483
bd26cc91
d45750ea
9033f2eb
40f21787
8fd2c483
c5757d10
d45750ea
9033f2eb
4aa96264
8fd2c483
b4422ac2
d45750ea
9033f2eb
c877f3d5
8fd2c483
7cd4bcf1
d45750ea
9033f2eb
578cdbf5
8fd2c483
a4799e4e
d45750ea
4699ff47
c25cb08e
20b35c21
5fa9a970
7ce78791
8fd2c483
3dcb311a
e61ee73e
71ad0ba4
8fd2c483
d9973b2f
e61ee73e
be9f1435
8fd2c483
b15bb1b2
e61ee73e
9033f2eb
fb6032d0
8fd2c483
9ee33379
e61ee73e
9033f2eb
db16a550
8fd2c483
49b41076
e61ee73e
9033f2eb
45beb1fd
8fd2c483
6ff29656
e61ee73e
9033f2eb
ab146c38
8fd2c483
d0b05a87
e61ee73e
9033f2eb
4ecb2945
8fd2c483
4d23ad81
e61ee73e
9033f2eb
23cab1c1
8fd2c483
6dd00945
e61ee73e
4699ff47
c25cb08e
20b35c21
9a24470c
70e1b76e
cca3c4f0
5aca4999
ea72c529
0e836f7e
22041ac6
113d0cb4
5fa9a970
7fc56379
ade32163
be470c01
f9e35269
f6fae4ef
76d016de
4ea2a321
f6fae4ef
5fa9a970
ee9e9ddc
72dbb695
0a7e7009
5ca087ab
12e93373
cd9dffcf
3a51827a
1f00ef18
4b202f24
22cf675c
5fa9a970
9033f2eb
3bf51c71
c6c6c2be
8fd2c483
47af4efa
f6fae4ef
76d016de
4072c970
f6fae4ef
5fa9a970
ee9e9ddc
8f86d0a5
231a4be1
be4ffcaf
12e93373
cd9dffcf
3a51827a
1f00ef18
4b202f24
113d0cb4
a397a9e2
364e8fc5
2bd3f515
1f00ef18
81dd61be
608e6d3b
481e0cd2
85555240
20b35c21
a397a9e2
364e8fc5
7215c83c
1f00ef18
608e6d3b
ba1fa52e
20b35c21
594b8833
9acbf55b
2abe9a05
27d0cc44
546287b3
e05c81d7
14cfc31a
cc3828f9
cf7984f9
2bc06acf
20b35c21
594b8833
9acbf55b
2abe9a05
27d0cc44
546287b3
e05c81d7
14cfc31a
cc3828f9
cf7984f9
2bc06acf
6e1e9f87
302b162f
614af3cc
f92c0f24
a9b2b8cb
d68f2b43
9f28bd83
07a708e8
302b162f
cd9dffcf
f92c0f24
a9b2b8cb
d68f2b43
3abbadba
07a708e8
302b162f
614af3cc
8abe8343
8302048d
302b162f
cd9dffcf
8abe8343
4484b5de
4479e65c
302b162f
8107474e
16997c65
302b162f
2225484b
7efb208b
598c8355
a9b2b8cb
d68f2b43
db00072c
07a708e8
88d05690
a9b2b8cb
d68f2b43
98b11c65
07a708e8
253b1459
598c8355
a9b2b8cb
d68f2b43
0d2f880d
07a708e8
88d05690
a9b2b8cb
d68f2b43
05241648
07a708e8
87ef5186
71a9a17e
20b35c21
6f31c612
50203480
1a22c6c2
68b4722a
20b35c21
bda1f931
2498e264
7d60a621
909d88be
c6c6c2be
df9119fa
0e996074
909d88be
c6c6c2be
307823d1
f84bb666
909d88be
bbf898df
20b35c21
e8bf64ce
9a51825b
4ebc227c
39dc5d54
5006d247
a1280450
d5913dce
e4f4c157
6c672ecf
a352a265
09bc27ca
a8358b5e
4ebc227c
39dc5d54
5006d247
a1280450
4faad554
e4f4c157
c6c6c2be
3978623d
4ebc227c
39dc5d54
5006d247
a1280450
d066aaaa
e4f4c157
c6c6c2be
cc633e41
4ebc227c
39dc5d54
5006d247
a1280450
820f024a
20b35c21
74e0a615
f18c0ae8
2d003473
39dc5d54
5006d247
a1280450
1359cd86
db97d5bb
5ab93b11
a352a265
09bc27ca
908618bd
2d003473
39dc5d54
5006d247
a1280450
ae18762a
db97d5bb
c6c6c2be
7491f2da
2d003473
39dc5d54
5006d247
a1280450
8ed63600
db97d5bb
c6c6c2be
572b6abf
2d003473
39dc5d54
5006d247
a1280450
c9b32117
20b35c21
33c3e6ec
5ee1e791
4f2fddc1
9fe3aeac
6f1850c1
26adb352
ba9f46f1
26adb352
20b35c21
c64e2263
7fca8e17
f7bc7ed6
affa2b1f
12e93373
5006d247
e7e22756
1f00ef18
6e1e9f87
ea13b4fd
9ee61499
4479e65c
c259634e
2ada3b17
b0e23169
df2f9d32
f9f0895c
ae8483fd
2bd3f515
1f00ef18
084fd715
48cd31b3
ffd9847a
f7a2b312
c291cf91
1f00ef18
084fd715
ce629adf
12e93373
5006d247
727a162d
1f00ef18
87ef5186
ea13b4fd
9ee61499
4479e65c
576ca28b
97303d7c
03ff7b8e
9cdf52a8
a911ac0b
a0f0a05e
6b737736
33353cc2
f9f0895c
ae8483fd
2bd3f515
1f00ef18
084fd715
b12e8b18
7efa74d6
f7a2b312
c291cf91
1f00ef18
084fd715
4d4e7b75
c64e2263
488714e9
12e93373
45beb1fd
54af9c66
1f00ef18
f7a2b312
7bfd5e9f
1f00ef18
f6fae4ef
dff3c8de
dff3c8de
dff3c8de
dff3c8de
dff3c8de
dff3c8de
dff3c8de
dff3c8de
dff3c8de
dff3c8de
dff3c8de
dff3c8de
dff3c8de
dff3c8de
dff3c8de
dff3c8de
dff3c8de
dff3c8de
dff3c8de
dff3c8de
dff3c8de
dff3c8de
dff3c8de
dff3c8de
dff3c8de
dff3c8de
dff3c8de
dff3c8de
dff3c8de
dff3c8de
dff3c8de
dff3c8de
dff3c8de
dff3c8de
dff3c8de
dff3c8de
dff3c8de
dff3c8de
dff3c8de
dff3c8de
dff3c8de
dff3c8de
dff3c8de
dff3c8de
dff3c8de
dff3c8de
dff3c8de
dff3c8de
dff3c8de
dff3c8de
dff3c8de
dff3c8de
dff3c8de
dff3c8de
dff3c8de
dff3c8de
dff3c8de
dff3c8de
dff3c8de
dff3c8de
dff3c8de
dff3c8de
dff3c8de
dff3c8de
dff3c8de
dff3c8de
dff3c8de
dff3c8de
dff3c8de
dff3c8de
dff3c8de
dff3c8de
dff3c8de
dff3c8de
dff3c8de
dff3c8de
dff3c8de
dff3c8de
dff3c8de
dff3c8de
dff3c8de
dff3c8de
dff3c8de
dff3c8de
dff3c8de
dff3c8de
dff3c8de
dff3c8de
dff3c8de
dff3c8de
dff3c8de
dff3c8de
dff3c8de
dff3c8de
dff3c8de
dff3c8de
dff3c8de
dff3c8de
dff3c8de
dff3c8de
dff3c8de
dff3c8de
dff3c8de
dff3c8de
dff3c8de
dff3c8de
dff3c8de
dff3c8de
dff3c8de
dff3c8de
dff3c8de
dff3c8de
dff3c8de
dff3c8de
dff3c8de
dff3c8de
dff3c8de
dff3c8de
dff3c8de
dff3c8de
dff3c8de
dff3c8de
dff3c8de
dff3c8de
dff3c8de
dff3c8de
dff3c8de
dff3c8de
dff3c8de
dff3c8de
dff3c8de
dff3c8de
dff3c8de
dff3c8de
dff3c8de
dff3c8de
dff3c8de
dff3c8de
dff3c8de
dff3c8de
dff3c8de
dff3c8de
dff3c8de
dff3c8de
dff3c8de
dff3c8de
dff3c8de
dff3c8de
dff3c8de
dff3c8de
dff3c8de
dff3c8de
dff3c8de
dff3c8de
dff3c8de
dff3c8de
dff3c8de
dff3c8de
dff3c8de
dff3c8de
dff3c8de
dff3c8de
dff3c8de
dff3c8de
dff3c8de
dff3c8de
dff3c8de
dff3c8de
dff3c8de
dff3c8de
dff3c8de
dff3c8de
dff3c8de
dff3c8de
dff3c8de
dff3c8de
dff3c8de
dff3c8de
dff3c8de
dff3c8de
dff3c8de
dff3c8de
dff3c8de
dff3c8de
dff3c8de
dff3c8de
dff3c8de
dff3c8de
dff3c8de
dff3c8de
dff3c8de
dff3c8de
dff3c8de
dff3c8de
dff3c8de
dff3c8de
dff3c8de
dff3c8de
dff3c8de
dff3c8de
dff3c8de
dff3c8de
dff3c8de
dff3c8de
dff3c8de
dff3c8de
dff3c8de
dff3c8de
dff3c8de
dff3c8de
dff3c8de
dff3c8de
dff3c8de
dff3c8de
dff3c8de
dff3c8de
dff3c8de
dff3c8de
dff3c8de
dff3c8de
dff3c8de
dff3c8de
dff3c8de
dff3c8de
dff3c8de
dff3c8de
dff3c8de
dff3c8de
dff3c8de
dff3c8de
dff3c8de
dff3c8de
dff3c8de
dff3c8de
dff3c8de
dff3c8de
dff3c8de
dff3c8de
dff3c8de
dff3c8de
dff3c8de
dff3c8de
dff3c8de
dff3c8de
dff3c8de
dff3c8de
dff3c8de
dff3c8de
dff3c8de
dff3c8de
dff3c8de
dff3c8de
dff3c8de
dff3c8de
dff3c8de
dff3c8de
dff3c8de
dff3c8de
dff3c8de
dff3c8de
dff3c8de
dff3c8de
dff3c8de
dff3c8de
dff3c8de
dff3c8de
dff3c8de
dff3c8de
dff3c8de
dff3c8de
dff3c8de
dff3c8de
dff3c8de
dff3c8de
dff3c8de
dff3c8de
dff3c8de
dff3c8de
dff3c8de
dff3c8de
dff3c8de
dff3c8de
dff3c8de
dff3c8de
dff3c8de
dff3c8de
dff3c8de
dff3c8de
dff3c8de
dff3c8de
dff3c8de
dff3c8de
dff3c8de
dff3c8de
dff3c8de
dff3c8de
dff3c8de
dff3c8de
dff3c8de
dff3c8de
dff3c8de
dff3c8de
dff3c8de
dff3c8de
dff3c8de
dff3c8de
dff3c8de
dff3c8de
dff3c8de
dff3c8de
dff3c8de
dff3c8de
dff3c8de
dff3c8de
dff3c8de
dff3c8de
dff3c8de
dff3c8de
dff3c8de
dff3c8de
dff3c8de
dff3c8de
dff3c8de
dff3c8de
dff3c8de
dff3c8de
dff3c8de
dff3c8de
dff3c8de
dff3c8de
dff3c8de
dff3c8de
dff3c8de
dff3c8de
dff3c8de
dff3c8de
dff3c8de
dff3c8de
dff3c8de
dff3c8de
dff3c8de
dff3c8de
dff3c8de
17cb4fa7
0e6db7a8
e7c71fcb
38ad5767
5a04daef
1f0896d8
50e83227
c6c6c2be
f7b910d7
35a15747
4401bb25
9c918e71
3f2f9541
f3ede092
1a7bc253
4479e65c
bc70660a
ed0dc5b2
3d263c32
956ac6e1
39d4dd14
737db3e5
302b162f
1321b889
1a7bc253
b6748acf
4479e65c
302b162f
614af3cc
8abe8343
9b3f0689
f92c0f24
267f94e6
302b162f
cd9dffcf
8abe8343
de742e3b
f92c0f24
4da5465f
4479e65c
6e1e9f87
9311715b
87ef5186
0b5bc104
5e4cb5d2
4479e65c
97b93279
f9ea1ab8
14630df4
6893476f
302b162f
b1d3407e
839e032f
4479e65c
bc70660a
a4f5b8b7
3d263c32
ed4c939f
302b162f
8f5b0c27
839e032f
b6748acf
4479e65c
302b162f
614af3cc
31ba070c
267f94e6
302b162f
cd9dffcf
31ba070c
4da5465f
4479e65c
39d4dd14
41d3c282
c6f75800
6ff5dae3
2edbdbc2
4401bb25
d671b8aa
c3bed098
39d4dd14
46bd467a
c9e20253
c1f12801
b332d254
e49af147
c6c6c2be
38ad5767
ed6c711d
4401bb25
60d98a2e
7d09f1d2
39d4dd14
940c4925
f852019e
d990e438
8dd6c6e1
e73515d0
ea13b4fd
9ee61499
4479e65c
b8594332
5fae77b7
39226ab2
a48ee148
d8df608c
b3656fb8
331c97c2
af45ca8c
39d4dd14
bd1b6255
302b162f
fb6032d0
5a54527a
4479e65c
c8e4b5dd
24c628ce
3bacbea9
c0f3b780
39d4dd14
dcf28114
f31ffe56
f3e0ee6f
c7adc815
cef00b62
12e93373
1321b889
ef84e44e
1f00ef18
24c628ce
43e05a6d
3ac7fa10
6e1e9f87
c8a5e4cf
c91ed772
723b60ac
95f37819
c9174ef6
c5609579
d918cfda
ae56ffb4
94058c0f
32827c67
2efda6fa
f493acad
d68f2b43
47dc99a3
8f5b0c27
7474c13a
ed0dc5b2
6d6f8d93
1e1275da
6e05219a
c243f1a8
36c2ff12
24c628ce
0d72e862
2efda6fa
41464006
d68f2b43
7215c83c
8f5b0c27
7bcf9cad
ed0dc5b2
6d6f8d93
1e1275da
b9f7f751
c243f1a8
cbbd1513
24c628ce
0d72e862
2efda6fa
ef69d085
d68f2b43
2bd3f515
8f5b0c27
7bd351f5
ed0dc5b2
6d6f8d93
1e1275da
dad93a2e
c243f1a8
f1728904
24c628ce
0d72e862
2efda6fa
e12c39da
87ef5186
db03c4bd
98146e5b
6e1e9f87
8f5b0c27
81a96dfa
97a51377
6d6f8d93
c8a5e4cf
ce96b5a3
1d82ec5d
15a3ee1c
a9ca298b
59a3d1fb
68bc0a62
765cea12
f172b9d2
d9ad6cad
d918cfda
5f4616f9
db03c4bd
d68f2b43
fae0ce0f
1e1275da
597fd5bc
ab0b0c1f
bf8e149a
24c628ce
0d72e862
8f5b0c27
614addf0
97a51377
6d6f8d93
1d82ec5d
3e480861
a9ca298b
37d7a5f9
d68f2b43
b025c01b
1e1275da
b80e6fef
ab0b0c1f
e4bba2ee
24c628ce
0d72e862
87ef5186
db03c4bd
98146e5b
5934cc37
ba0d4024
5b566dca
b0ecd9fb
a9b2b8cb
07a708e8
b77e2ec4
b0ecd9fb
b8a83317
6ddfdb41
acc76851
47ff3aa7
df71cf06
ba0d4024
05b99620
2ec6bb82
302b162f
c2859c83
28ec5abb
c684ed7f
4479e65c
da326c16
302b162f
c2859c83
055a0c3a
c684ed7f
4479e65c
26aecba4
4484b5de
805e8dbc
54999987
598c8355
d6a3e75c
c6717157
ef4e111f
c2c150eb
fe566c75
ff08bcc1
e7194a33
16421f43
12b877c8
a052a391
a897cdb9
b6bf87b2
1d98376e
9d4e6c1b
f6fae4ef
545da95f
8302048d
7acd61cb
2d9fb3b0
9d4e6c1b
f6fae4ef
a22bf231
8302048d
c3974959
c6c6c2be
467acfee
598c8355
bafc2fe8
865f3132
598c8355
331c97c2
3a7d7ad2
598c8355
5934cc37
ba0d4024
f11a0a1b
598c8355
a9b2b8cb
07a708e8
97f61dbf
598c8355
b8a83317
6ddfdb41
279ab89a
9d4e6c1b
f6fae4ef
f96eba8b
5f3fc7cc
e03f0aac
dd59734f
e9646138
a1280450
d8df608c
9cdd452a
bb89d033
c8a5e4cf
ce96b5a3
1d82ec5d
2225484b
a9ca298b
0fb95966
68bc0a62
8f5b0c27
f172b9d2
0e7c65a0
d918cfda
f9602f43
f829a51b
41495f22
7b24a72a
59882368
507d29a8
fb6032d0
deecd899
6f1850c1
67b3acb8
b2bffdd0
3c01b0c2
1b14174b
d727776e
fa819240
535ca7fe
195a264c
e03f0aac
04b36827
72334784
8302048d
08115428
fba4a637
15a5f51b
1e1275da
7dc4c070
24c628ce
f865e379
6faa6d6d
31335253
01c66ffd
484dc336
c8a5e4cf
ce96b5a3
1d82ec5d
2225484b
a9ca298b
503062de
68bc0a62
8f5b0c27
f172b9d2
0e7c65a0
d918cfda
f9602f43
399f98f9
f865e379
41495f22
7b24a72a
59882368
507d29a8
54878037
38d6e920
67b3acb8
b2bffdd0
ac5788cf
1b14174b
d727776e
fa819240
535ca7fe
195a264c
e03f0aac
04b36827
72334784
8302048d
08115428
fba4a637
15a5f51b
1e1275da
969d9b31
24c628ce
f865e379
6faa6d6d
31335253
08115428
302b162f
614af3cc
a44fea6d
4479e65c
09bc27ca
e9646138
195a264c
302b162f
cd9dffcf
a44fea6d
4479e65c
09bc27ca
044aebcf
302b162f
4ecb2945
5a54527a
4479e65c
458e180e
c8a5e4cf
ce96b5a3
1d82ec5d
2225484b
a9ca298b
503062de
68bc0a62
8f5b0c27
f172b9d2
0e7c65a0
d918cfda
77262efa
f829a51b
28a51fcb
05920ab1
7b24a72a
59882368
507d29a8
8da10cef
deecd899
e1680845
570563a2
b2fe9b89
b2bffdd0
3c01b0c2
1b14174b
d727776e
fa819240
535ca7fe
039c9903
e03f0aac
12fdbf4a
a1280450
d8df608c
195a264c
e03f0aac
04b36827
72334784
8302048d
08115428
fba4a637
15a5f51b
1e1275da
5da7d8d6
24c628ce
f865e379
6faa6d6d
31335253
df71cf06
1112791c
1e1275da
9328dea7
9e399d01
ee9e9ddc
4df0824a
68f3018b
47937b01
98146e5b
f172b9d2
8107474e
8f5b0c27
eac897d9
a175e6f8
af2062d4
6a93b2ff
7b4a0691
37336210
2ead92bb
d87723d7
bf438355
c8a5e4cf
4fb91930
ed902cab
37336210
67e18852
40547f0c
bf438355
c8a5e4cf
5546a2a0
ed902cab
576a430c
bf438355
c8a5e4cf
4fb91930
c5609579
723b60ac
95f37819
c9174ef6
d918cfda
ae56ffb4
94058c0f
32827c67
af779566
a7dc9322
1b298044
a175e6f8
37336210
ededb467
a4a46129
79c8f2b1
54a518e5
faa4c529
6343bbe9
f3733904
3c28b1fd
692e37aa
5bb1981f
95917541
2efda6fa
6fee016f
d68f2b43
9f28bd83
f0e4a3eb
3ac2eafb
cca3c4f0
5994a4e3
ee9e9ddc
eea71076
3b97439f
9b3f0689
2efda6fa
f65c8b47
d68f2b43
3abbadba
f0e4a3eb
2e53f4a3
cca3c4f0
a65239b9
ee9e9ddc
cfc58418
3b97439f
de742e3b
806aea1c
3c28b1fd
692e37aa
d68f2b43
9f28bd83
2efda6fa
6fee016f
f0e4a3eb
3ac2eafb
cca3c4f0
5994a4e3
f14e006e
76391384
ee9e9ddc
fd7380c7
172cbe66
f0e4a3eb
e9ef13a8
ee9e9ddc
4d224e8c
d852de74
d68f2b43
3abbadba
2efda6fa
f65c8b47
f0e4a3eb
2e53f4a3
cca3c4f0
a65239b9
982ab61a
76391384
ee9e9ddc
9ac71d96
172cbe66
f0e4a3eb
0113283a
ee9e9ddc
904deaff
d852de74
af779566
6d6f8d93
37336210
868456a2
f14e006e
267f94e6
982ab61a
4da5465f
54a518e5
8ee74718
6d6f8d93
37336210
49e29727
f3733904
3c28b1fd
9c2b3a6b
a80e1b70
8ed32c7e
2efda6fa
6fee016f
d68f2b43
db00072c
f0e4a3eb
3ac2eafb
cca3c4f0
5994a4e3
ee9e9ddc
a5cdfc2d
3b97439f
9b3f0689
2efda6fa
e93caa6a
d68f2b43
98b11c65
f0e4a3eb
2e53f4a3
cca3c4f0
a65239b9
ee9e9ddc
356d708b
3b97439f
de742e3b
806aea1c
3c28b1fd
8ed32c7e
d68f2b43
db00072c
2efda6fa
6fee016f
f0e4a3eb
3ac2eafb
cca3c4f0
5994a4e3
f14e006e
76391384
ee9e9ddc
fd615080
172cbe66
f0e4a3eb
e907ee84
ee9e9ddc
91c89366
d852de74
d68f2b43
98b11c65
2efda6fa
e93caa6a
f0e4a3eb
2e53f4a3
cca3c4f0
a65239b9
982ab61a
76391384
ee9e9ddc
c8388dc2
172cbe66
f0e4a3eb
e4f8d1c2
ee9e9ddc
7133c203
d852de74
a7dc9322
7864b197
6d6f8d93
37336210
6c8e04d7
f3733904
3c28b1fd
34ecde35
bf438355
ee809236
2efda6fa
6fee016f
d68f2b43
0d2f880d
f0e4a3eb
3ac2eafb
cca3c4f0
5994a4e3
ee9e9ddc
afd01368
3b97439f
9b3f0689
2efda6fa
b2ee86c0
d68f2b43
05241648
f0e4a3eb
2e53f4a3
cca3c4f0
a65239b9
ee9e9ddc
99e39396
3b97439f
de742e3b
806aea1c
3c28b1fd
d68f2b43
0d2f880d
2efda6fa
6fee016f
ee809236
f0e4a3eb
3ac2eafb
cca3c4f0
5994a4e3
f14e006e
76391384
ee9e9ddc
67eaf541
172cbe66
f0e4a3eb
a6a9cda8
ee9e9ddc
b74c1755
d852de74
d68f2b43
05241648
2efda6fa
b2ee86c0
f0e4a3eb
2e53f4a3
cca3c4f0
a65239b9
982ab61a
76391384
ee9e9ddc
fe9d7d45
172cbe66
f0e4a3eb
923b05d2
ee9e9ddc
0bfab005
d852de74
1b298044
2efda6fa
e12c39da
ee9e9ddc
fed8b4d0
81cb5fc6
6d6f8d93
37336210
dc030ddc
3bacbea9
24c628ce
98146e5b
f865e379
24c628ce
5245cb4d
eac897d9
fc59e8d8
07a708e8
1e1275da
6c504249
24c628ce
f865e379
2f35e2f2
0c1cb05f
ac0bf07c
8a285a61
20b35c21
1e1275da
cb34e65e
79d7642e
a9b2b8cb
6d6f8d93
37336210
2d653831
bd0f2190
8302048d
07a708e8
24c628ce
f865e379
2f35e2f2
ed0dc5b2
6d6f8d93
24c628ce
0d72e862
6268be1c
20b35c21
76391384
8593d4e2
2278e6ab
12e93373
614af3cc
e5db5517
12e93373
cd9dffcf
8a285a61
8e28457c
1f00ef18
20b35c21
a175e6f8
37336210
f1aa5f74
a7dd255a
bda1f931
0e47d1a0
8593d4e2
9e708f0d
f0e4a3eb
d3b37315
9adce317
f0e4a3eb
abd5c9b7
7762da38
c6c6c2be
efafaf45
8593d4e2
a6d0a9aa
f0e4a3eb
1942b438
7d3fa4f8
f0e4a3eb
3804c29d
7762da38
c6c6c2be
3ae0d2ed
8593d4e2
32cd5807
f0e4a3eb
d51577e6
88849c9b
f0e4a3eb
a928b42f
7762da38
8593d4e2
81c82a40
f0e4a3eb
71151b5c
7762da38
f0e4a3eb
7d86b936
dc08798c
5d36e956
54a518e5
e4248077
8593d4e2
be78c1ef
302b162f
614af3cc
26c3ed75
302b162f
cd9dffcf
1f76a15a
92f33116
4479e65c
b8a0122b
a1280450
ad43bfdb
8593d4e2
e4ae5473
302b162f
614af3cc
3a96fd22
302b162f
cd9dffcf
28b30253
8e8f0940
4479e65c
b8a0122b
a1280450
8e28457c
8593d4e2
4f823d8b
302b162f
614af3cc
fbdaf563
302b162f
cd9dffcf
da81604d
381072ae
4479e65c
b8a0122b
a1280450
1c854cb0
20b35c21
bda1f931
8ff890b3
f0e4a3eb
16957a38
90b12ee7
c6c6c2be
ee4d549e
f0e4a3eb
d4955b7e
90b12ee7
c6c6c2be
e163b0b7
f0e4a3eb
bb8e0a08
90b12ee7
f0e4a3eb
0b09f82c
8593d4e2
c6a1e1af
12e93373
614af3cc
46ca2abd
12e93373
cd9dffcf
f0cdefbf
8e28457c
1f00ef18
20b35c21
9abd59f6
5aca4999
e5ac63a8
4e4471b1
8f5b0c27
70e1b76e
5ab4a99a
c25cb08e
8593d4e2
3915532f
302b162f
614af3cc
85b0c71a
302b162f
cd9dffcf
0182e909
13967a07
d4a425f8
e9646138
4479e65c
af2062d4
512e8b2e
5ec661e3
c8b80fa2
c8a5e4cf
c91ed772
94058c0f
32827c67
54a5b90f
7a1df779
c8b80fa2
c8a5e4cf
5546a2a0
94058c0f
32827c67
723b60ac
95f37819
c9174ef6
f172b9d2
8107474e
d918cfda
ae56ffb4
54a518e5
38d82506
9387c159
2efda6fa
f411cc81
ea72c529
0e836f7e
f0e4a3eb
73065b3b
1e1275da
ebdd1efb
a61562fa
b68e9386
cdf7dd4c
2bd3f515
2efda6fa
f411cc81
ea72c529
4ada98d7
f0e4a3eb
f08c91d1
1e1275da
3b3e82d2
a61562fa
2efda6fa
e12c39da
34ddae5d
ee9e9ddc
8aeda482
24c15a1c
f865e379
b713f1ff
e5ac63a8
517672ce
d8df608c
71a9a17e
12e93373
cd9dffcf
d1d94103
12e93373
553f5669
de8d1126
1f00ef18
8e28457c
f865e379
fd89a6c0
7fc56379
12e93373
553f5669
de8d1126
1f00ef18
f6fae4ef
a2d951a0
98192815
4479e65c
18d6a064
c8a5e4cf
c91ed772
1d82ec5d
2225484b
a9ca298b
c9190264
c9174ef6
f172b9d2
8aee5a2d
d918cfda
0159860b
399f98f9
a472c96b
28a51fcb
05920ab1
7b24a72a
189d7546
b22227cd
56029bce
38d6e920
67b3acb8
b2bffdd0
06d64ef3
1b14174b
0f53b60b
20516118
d04e462b
a6978fc1
3049039b
535ca7fe
1e1275da
59fbc9b6
24c628ce
f865e379
6faa6d6d
302b162f
e12c39da
41f4d412
4479e65c
93d154e4
302b162f
f350357d
2f24160f
4479e65c
d2f1279b
302b162f
3bab9e5b
2f24160f
4479e65c
805e8dbc
302b162f
e12c39da
2f24160f
4479e65c
54999987
6b0a1a66
c30b469b
08115428
72334784
c9694d9c
5221b18a
3aedb1cd
8ee69cc8
b5a2eefa
8302048d
fafcf16b
cca48bd8
f2243cb5
302b162f
e12c39da
41f4d412
4479e65c
4e22fab6
ea72c529
553f5669
90189d9a
ea72c529
fc59e8d8
b5a2eefa
8aba30c6
8302048d
ea72c529
fb8f1dfa
e7194a33
4a552d89
f2243cb5
9abd59f6
e65228f4
8f56aa6f
fe3538a0
598c8355
6e1e9f87
a9b2b8cb
d68f2b43
68af1c82
07a708e8
9334d642
c30b469b
195a264c
72334784
c9694d9c
5221b18a
3aedb1cd
d7dafc2d
b5a2eefa
8302048d
66bffa99
cca48bd8
0d3e294c
302b162f
e12c39da
41f4d412
4479e65c
f886a0c4
ea72c529
553f5669
1184c467
ea72c529
fc59e8d8
b5a2eefa
8aba30c6
8302048d
ea72c529
fb8f1dfa
e7194a33
6179138e
0d3e294c
9abd59f6
e65228f4
8f56aa6f
fe3538a0
598c8355
a9b2b8cb
d68f2b43
5546a2a0
07a708e8
87ef5186
f1406c97
302b162f
c2859c83
d96a8fa2
4479e65c
26aecba4
4484b5de
302b162f
c2859c83
5a86eb71
8302048d
c25cb08e
c9694d9c
302b162f
37096877
ed6d76f3
4479e65c
0896e5d9
af71f50e
d81246f9
c6c6c2be
d5e1ff0d
c30b469b
b9aa6887
5080821c
1f7d40fd
ed6d76f3
4479e65c
bc70660a
add8145f
c0a74c61
47c8328d
76391384
5d0a085d
bc70660a
10bcbf81
a2d951a0
ed6d76f3
4479e65c
1cc59c06
5d8617d2
8302048d
effff3d6
a052a391
8302048d
bda7270b
e7194a33
77d2ff3a
be587c0d
450f9aca
c5d696c5
c2cfe4ab
a897cdb9
f49d871c
4cddf94e
88e93000
4dacacd8
ee3847f1
7215c83c
4dacacd8
e1980925
302b162f
ab146c38
05999e49
4479e65c
c9694d9c
b84670fa
05999e49
4479e65c
4fcd7822
302b162f
cf3c97b1
13a4233f
4479e65c
13967a07
ad9b2323
13a4233f
4479e65c
8302048d
302b162f
0985d168
f9662964
4479e65c
4484b5de
302b162f
7948d58d
eb864d11
4479e65c
c25cb08e
c1c94747
302b162f
c877f3d5
eb864d11
4479e65c
75a3a796
a4c2f594
eccb4f31
c25cb08e
8b94833c
f5e0df9e
5fa0f290
f5e0df9e
7d697deb
92da51d2
dc486bcb
0a1369e9
dc486bcb
812984dc
c9c252be
7215c83c
3547622c
70995000
3547622c
35173309
302b162f
cf3c97b1
8524163d
4479e65c
e8924933
ad9b2323
8524163d
4479e65c
c30b469b
302b162f
0669130b
9b68c8fb
4479e65c
805e8dbc
302b162f
fe8bc401
9b68c8fb
4479e65c
90909b5d
302b162f
4fb91930
9b68c8fb
4479e65c
54999987
302b162f
fc59e8d8
9b68c8fb
4479e65c
2d3468a6
302b162f
cf3c97b1
391707bd
4479e65c
67c9afe4
1e1275da
b3b15708
f79529ad
450f9aca
ddffd4e6
00d10597
af2062d4
bb395021
54a518e5
2dd77c2a
cc0170c4
a01a13be
00d10597
54a518e5
376a866f
00d10597
3aedb1cd
a01a13be
00d10597
29ebb7eb
6f49ff16
ef32230a
af2062d4
2fb42b08
8593d4e2
13392187
4efc4b17
df2c2685
ef32230a
ef32230a
8593d4e2
5ed15841
9e4fd17f
67745422
df2c2685
ef32230a
92e4f70e
7215c83c
0f372239
78df5c38
0f372239
deda12b9
0ec26d01
195a264c
e8924933
6e1e9f87
a9b2b8cb
d68f2b43
68af1c82
07a708e8
9167896a
d68f2b43
5546a2a0
07a708e8
87ef5186
2fe0a0ea
1e1275da
61acc216
9e399d01
f3733904
7935bd1c
659f3f95
806aea1c
d8fdf238
c02daf97
79472287
4479e65c
21217173
12ba50ea
8f5b0c27
2225484b
080bcb4e
fb8f1dfa
73ad599e
8302048d
cc12cf62
866f6dd2
f277d795
4fcd7822
c2c150eb
8302048d
cc12cf62
b531b783
f7bc7ed6
998f7e20
1f00ef18
024153aa
67c9afe4
95ff7ae5
013fef88
e11c08dc
ea72c529
aaed7a3e
013fef88
2cf28141
806aea1c
d8fdf238
0b5bc104
79472287
4479e65c
e20c26dd
806aea1c
d8fdf238
1f7d40fd
65a6738f
4479e65c
8c86b007
8f5b0c27
2225484b
080bcb4e
fb8f1dfa
73ad599e
8302048d
062f48f2
5592f14b
f277d795
4fcd7822
c2c150eb
8302048d
062f48f2
b531b783
65a6738f
ade32163
e9646138
0b35c0fe
853f7e33
eda3870f
c6c6c2be
391707bd
eda3870f
c6c6c2be
d6e43b6f
eda3870f
c6c6c2be
2f24160f
eda3870f
c6c6c2be
4c10a457
eda3870f
c6c6c2be
95c93227
eda3870f
c6c6c2be
0796b537
eda3870f
c6c6c2be
3c85f39e
eda3870f
c6c6c2be
935466c5
eda3870f
c6c6c2be
d426efdf
eda3870f
c6c6c2be
0ba9f65a
eda3870f
c6c6c2be
3a783055
eda3870f
c6c6c2be
fb0d26c8
eda3870f
c6c6c2be
e53c0b58
eda3870f
c6c6c2be
83d62988
eda3870f
c6c6c2be
a87ff185
eda3870f
c6c6c2be
76910e46
eda3870f
c6c6c2be
a30113a4
eda3870f
c6c6c2be
6b0a1a66
eda3870f
c6c6c2be
9334d642
eda3870f
c6c6c2be
d6c85c20
eda3870f
c6c6c2be
85836ed4
eda3870f
c6c6c2be
88546578
eda3870f
c6c6c2be
e65cf9d4
eda3870f
c6c6c2be
c1be1734
eda3870f
c6c6c2be
43a2fa29
eda3870f
c6c6c2be
49c2cb04
eda3870f
c6c6c2be
cf6a4170
eda3870f
c6c6c2be
a01163e4
eda3870f
c6c6c2be
214e0bc4
eda3870f
c6c6c2be
37f77d4d
eda3870f
c6c6c2be
ac9469df
eda3870f
c6c6c2be
1303cddb
eda3870f
c6c6c2be
81c74cd2
eda3870f
c6c6c2be
c684ed7f
eda3870f
c6c6c2be
b732396b
eda3870f
c6c6c2be
1eb3c5c2
eda3870f
c6c6c2be
bd4ead3d
eda3870f
c6c6c2be
fcd217c2
eda3870f
c6c6c2be
97892fc5
eda3870f
c6c6c2be
e95b7489
eda3870f
c6c6c2be
7962236a
eda3870f
c6c6c2be
c6c6c2be
c6c6c2be
c6c6c2be
044aebcf
f865e379
9852053e
302b162f
8e606015
1bcdae4b
4479e65c
4484b5de
302b162f
e12c39da
1bcdae4b
4479e65c
3edf40a4
19aa2489
120136a8
9033f2eb
fb8f1dfa
e7194a33
4484b5de
af2062d4
f6fae4ef
6e1e9f87
2b1d588b
e4f8d1c2
7e867458
2b1d588b
28a51fcb
2b1d588b
82e26e03
2b1d588b
eccdd777
2b1d588b
b0cd4ee4
08ea9ed0
2b1d588b
eccdd777
2b1d588b
82e26e03
2b1d588b
28a51fcb
2b1d588b
e4f8d1c2
0b65ff94
2b1d588b
28a51fcb
2b1d588b
e175d490
2b1d588b
553f5669
2b1d588b
e283a6d0
070627c9
2b1d588b
553f5669
2b1d588b
e175d490
2b1d588b
28a51fcb
2b1d588b
e4f8d1c2
2b1d588b
625245e5
87ef5186
24c628ce
98146e5b
c8a5e4cf
ce96b5a3
1d82ec5d
3e480861
a9ca298b
476c2d97
c9174ef6
f172b9d2
77fb5462
d918cfda
44e816d9
8f5b0c27
eac897d9
eac897d9
fc59e8d8
d68f2b43
68af1c82
07a708e8
1e1275da
5d8589a4
24c628ce
f865e379
86de490b
2f35e2f2
6268be1c
f5503a3a
c8a5e4cf
ce96b5a3
1d82ec5d
3e480861
a9ca298b
4f96119a
c9174ef6
f172b9d2
77fb5462
d918cfda
44e816d9
8f5b0c27
eac897d9
eac897d9
fc59e8d8
d68f2b43
68af1c82
07a708e8
1e1275da
a2b93994
24c628ce
f865e379
5afc23b7
2f35e2f2
1e1275da
0aec2795
24c628ce
3717c074
76391384
080bcb4e
fb6032d0
5a63c85e
302b162f
cd9dffcf
eb88c802
4479e65c
e8924933
4dc1787a
d832a41f
09bc27ca
6b421708
287f5e8e
8aba30c6
080bcb4e
cd9dffcf
6f6b93b9
c54fce1f
6b421708
8f5b0c27
c8f88a89
8a285a61
1e1275da
c9152211
13dd925d
f969860a
302b162f
cd9dffcf
0882eedb
4479e65c
94709fa0
8f5b0c27
a65239b9
080bcb4e
5994a4e3
1e1275da
caa009fe
09726c67
8cca3471
12e93373
cd9dffcf
282120ca
1f00ef18
8f5b0c27
a65239b9
080bcb4e
5994a4e3
9abd59f6
c8f88a89
1e1275da
9eddd036
24c628ce
3717c074
1e1275da
d185938e
13dd925d
036c7def
c8a5e4cf
ce96b5a3
1d82ec5d
15a3ee1c
a9ca298b
b3dce2e9
c9174ef6
f172b9d2
77fb5462
d918cfda
44e816d9
8f5b0c27
eac897d9
eac897d9
fc59e8d8
d68f2b43
5546a2a0
07a708e8
1e1275da
ac291ee9
24c628ce
f865e379
86de490b
2f35e2f2
6268be1c
f5503a3a
c8a5e4cf
ce96b5a3
1d82ec5d
15a3ee1c
a9ca298b
f28294cf
c9174ef6
f172b9d2
77fb5462
d918cfda
44e816d9
8f5b0c27
eac897d9
eac897d9
fc59e8d8
d68f2b43
5546a2a0
07a708e8
1e1275da
611dd8a3
24c628ce
f865e379
5afc23b7
2f35e2f2
1e1275da
191d1fda
24c628ce
3717c074
76391384
080bcb4e
fb6032d0
5a63c85e
302b162f
cd9dffcf
5ba2f40b
4479e65c
e8924933
6e5db818
d832a41f
09bc27ca
6c991a3a
5fa2bbd0
8aba30c6
080bcb4e
cd9dffcf
6f6b93b9
c54fce1f
6c991a3a
8f5b0c27
7ed5006b
8a285a61
1e1275da
a0062c6b
13dd925d
f969860a
302b162f
cd9dffcf
043a9251
4479e65c
94709fa0
8f5b0c27
a65239b9
080bcb4e
5994a4e3
1e1275da
a6268870
09726c67
8cca3471
12e93373
cd9dffcf
b091bb7e
1f00ef18
8f5b0c27
a65239b9
080bcb4e
5994a4e3
9abd59f6
7ed5006b
1e1275da
729c81b8
24c628ce
3717c074
1e1275da
6959deec
13dd925d
036c7def
ae601e2b
c8a5e4cf
ce96b5a3
1d82ec5d
3e480861
a9ca298b
476c2d97
c9174ef6
f172b9d2
77fb5462
d918cfda
44e816d9
8f5b0c27
eac897d9
eac897d9
fc59e8d8
d68f2b43
15e0b53d
07a708e8
1e1275da
5c5af56e
24c628ce
f865e379
86de490b
2f35e2f2
6268be1c
f5503a3a
c8a5e4cf
ce96b5a3
1d82ec5d
3e480861
a9ca298b
4f96119a
c9174ef6
f172b9d2
77fb5462
d918cfda
44e816d9
8f5b0c27
eac897d9
eac897d9
fc59e8d8
d68f2b43
15e0b53d
07a708e8
1e1275da
4850fb5a
24c628ce
f865e379
5afc23b7
2f35e2f2
1e1275da
7a482d74
24c628ce
3717c074
76391384
080bcb4e
fb6032d0
5a63c85e
782d82ad
e8924933
87b9a570
d832a41f
09bc27ca
57ae3c52
080bcb4e
fb6032d0
24210435
080bcb4e
cd9dffcf
6f6b93b9
c54fce1f
57ae3c52
8f5b0c27
478689e9
8a285a61
1e1275da
66d2a978
13dd925d
f969860a
d5bb1ff6
94709fa0
8f5b0c27
a65239b9
080bcb4e
5994a4e3
1e1275da
e817f33a
09726c67
8cca3471
dba1cdfe
8f5b0c27
a65239b9
080bcb4e
5994a4e3
9abd59f6
478689e9
1e1275da
84e1353e
24c628ce
3717c074
1e1275da
307449f4
13dd925d
036c7def
c8a5e4cf
ce96b5a3
1d82ec5d
15a3ee1c
a9ca298b
b3dce2e9
c9174ef6
f172b9d2
77fb5462
d918cfda
44e816d9
8f5b0c27
eac897d9
eac897d9
fc59e8d8
d68f2b43
d9d1ce57
07a708e8
1e1275da
b8eff7df
24c628ce
f865e379
86de490b
2f35e2f2
6268be1c
f5503a3a
c8a5e4cf
ce96b5a3
1d82ec5d
15a3ee1c
a9ca298b
f28294cf
c9174ef6
f172b9d2
77fb5462
d918cfda
44e816d9
8f5b0c27
eac897d9
eac897d9
fc59e8d8
d68f2b43
d9d1ce57
07a708e8
1e1275da
23705977
24c628ce
f865e379
5afc23b7
2f35e2f2
1e1275da
9f07fc3c
24c628ce
3717c074
76391384
080bcb4e
fb6032d0
5a63c85e
474f975d
e8924933
e5160f4c
d832a41f
09bc27ca
2527cc8b
080bcb4e
fb6032d0
24210435
080bcb4e
cd9dffcf
6f6b93b9
c54fce1f
2527cc8b
8f5b0c27
543573ee
8a285a61
1e1275da
0c2c57ce
13dd925d
f969860a
aee2f6c5
94709fa0
8f5b0c27
a65239b9
080bcb4e
5994a4e3
1e1275da
953286b5
09726c67
8cca3471
7b25502e
8f5b0c27
a65239b9
080bcb4e
5994a4e3
9abd59f6
543573ee
1e1275da
e02dfca0
24c628ce
3717c074
1e1275da
665805cd
13dd925d
036c7def
7cf86fc4
c8a5e4cf
ce96b5a3
1d82ec5d
3e480861
a9ca298b
37d7a5f9
c9174ef6
f172b9d2
77fb5462
d918cfda
44e816d9
8f5b0c27
eac897d9
eac897d9
fc59e8d8
d68f2b43
68af1c82
07a708e8
1e1275da
21d74af4
24c628ce
f865e379
86de490b
2f35e2f2
6268be1c
f5503a3a
c8a5e4cf
ce96b5a3
1d82ec5d
3e480861
a9ca298b
f80fa0d6
c9174ef6
f172b9d2
77fb5462
d918cfda
44e816d9
8f5b0c27
eac897d9
eac897d9
fc59e8d8
d68f2b43
68af1c82
07a708e8
1e1275da
72740d62
24c628ce
f865e379
5afc23b7
2f35e2f2
1e1275da
d98a1fd7
24c628ce
3717c074
76391384
080bcb4e
fb6032d0
5a63c85e
302b162f
614af3cc
eb88c802
4479e65c
e8924933
4dc1787a
d832a41f
09bc27ca
af7281d2
287f5e8e
8aba30c6
080bcb4e
cd9dffcf
6f6b93b9
c54fce1f
af7281d2
8f5b0c27
c8f88a89
8a285a61
1e1275da
c4e20b86
69027101
f969860a
302b162f
614af3cc
0882eedb
4479e65c
94709fa0
8f5b0c27
a65239b9
080bcb4e
5994a4e3
1e1275da
54a2d1fe
09726c67
8cca3471
12e93373
614af3cc
282120ca
1f00ef18
8f5b0c27
a65239b9
080bcb4e
5994a4e3
9abd59f6
c8f88a89
1e1275da
0a029a0a
24c628ce
3717c074
1e1275da
f4e68383
69027101
036c7def
c8a5e4cf
ce96b5a3
1d82ec5d
15a3ee1c
a9ca298b
59a3d1fb
c9174ef6
f172b9d2
77fb5462
d918cfda
44e816d9
8f5b0c27
eac897d9
eac897d9
553f5669
d68f2b43
5546a2a0
07a708e8
1e1275da
98edae9f
24c628ce
f865e379
86de490b
2f35e2f2
6268be1c
f5503a3a
c8a5e4cf
ce96b5a3
1d82ec5d
15a3ee1c
a9ca298b
c1bb69e4
c9174ef6
f172b9d2
77fb5462
d918cfda
44e816d9
8f5b0c27
eac897d9
eac897d9
fc59e8d8
d68f2b43
5546a2a0
07a708e8
1e1275da
72a5dbe5
24c628ce
f865e379
5afc23b7
2f35e2f2
1e1275da
0bef70d8
24c628ce
3717c074
76391384
080bcb4e
fb6032d0
5a63c85e
302b162f
614af3cc
5ba2f40b
4479e65c
e8924933
6e5db818
d832a41f
09bc27ca
dcadf6db
5fa2bbd0
8aba30c6
080bcb4e
cd9dffcf
6f6b93b9
c54fce1f
dcadf6db
8f5b0c27
7ed5006b
8a285a61
1e1275da
65e1f1fd
69027101
f969860a
302b162f
614af3cc
043a9251
4479e65c
94709fa0
8f5b0c27
a65239b9
080bcb4e
5994a4e3
1e1275da
3395dea8
09726c67
8cca3471
12e93373
614af3cc
b091bb7e
1f00ef18
8f5b0c27
a65239b9
080bcb4e
5994a4e3
9abd59f6
7ed5006b
1e1275da
db705b27
24c628ce
3717c074
1e1275da
904f9d0b
69027101
036c7def
302b162f
614af3cc
0882eedb
302b162f
cd9dffcf
eb88c802
4479e65c
a1280450
45126192
b29176f9
302b162f
614af3cc
043a9251
302b162f
cd9dffcf
5ba2f40b
4479e65c
a1280450
45126192
d88e54b8
fd2bf481
c8a5e4cf
ce96b5a3
1d82ec5d
3e480861
a9ca298b
37d7a5f9
c9174ef6
f172b9d2
77fb5462
d918cfda
44e816d9
8f5b0c27
eac897d9
eac897d9
fc59e8d8
d68f2b43
2dd2db61
07a708e8
1e1275da
2dda0760
24c628ce
f865e379
86de490b
2f35e2f2
6268be1c
f5503a3a
c8a5e4cf
ce96b5a3
1d82ec5d
3e480861
a9ca298b
f80fa0d6
c9174ef6
f172b9d2
77fb5462
d918cfda
44e816d9
8f5b0c27
eac897d9
eac897d9
fc59e8d8
d68f2b43
2dd2db61
07a708e8
1e1275da
000cb396
24c628ce
f865e379
5afc23b7
2f35e2f2
1e1275da
f9c91d00
24c628ce
3717c074
76391384
080bcb4e
fb6032d0
5a63c85e
19c3612f
e8924933
f4d58da4
d832a41f
09bc27ca
5240b783
080bcb4e
fb6032d0
24210435
080bcb4e
cd9dffcf
6f6b93b9
c54fce1f
5240b783
8f5b0c27
6748db80
8a285a61
1e1275da
db6ff15c
69027101
f969860a
03134c81
94709fa0
8f5b0c27
a65239b9
080bcb4e
5994a4e3
1e1275da
23684219
09726c67
8cca3471
440629f5
8f5b0c27
a65239b9
080bcb4e
5994a4e3
9abd59f6
6748db80
1e1275da
1bcdae4b
24c628ce
3717c074
1e1275da
ea723d90
69027101
036c7def
c8a5e4cf
ce96b5a3
1d82ec5d
15a3ee1c
a9ca298b
59a3d1fb
c9174ef6
f172b9d2
77fb5462
d918cfda
44e816d9
8f5b0c27
eac897d9
eac897d9
fc59e8d8
d68f2b43
d2fe562d
07a708e8
1e1275da
bac836f5
24c628ce
f865e379
86de490b
2f35e2f2
6268be1c
f5503a3a
c8a5e4cf
ce96b5a3
1d82ec5d
15a3ee1c
a9ca298b
c1bb69e4
c9174ef6
f172b9d2
77fb5462
d918cfda
44e816d9
8f5b0c27
eac897d9
eac897d9
fc59e8d8
d68f2b43
d2fe562d
07a708e8
1e1275da
2dbc9ec4
24c628ce
f865e379
5afc23b7
2f35e2f2
1e1275da
a541222e
24c628ce
3717c074
76391384
080bcb4e
fb6032d0
5a63c85e
2aa80ab6
e8924933
41e42649
d832a41f
09bc27ca
daa9e582
080bcb4e
fb6032d0
24210435
080bcb4e
cd9dffcf
6f6b93b9
c54fce1f
daa9e582
8f5b0c27
75a61432
8a285a61
1e1275da
bc69eb2f
69027101
f969860a
1d0879dc
94709fa0
8f5b0c27
a65239b9
080bcb4e
5994a4e3
1e1275da
160c71c0
09726c67
8cca3471
aa57a2c4
8f5b0c27
a65239b9
080bcb4e
5994a4e3
9abd59f6
75a61432
1e1275da
3f3999e4
24c628ce
3717c074
1e1275da
a055acba
69027101
036c7def
0baf0d53
6268be1c
c25cb08e
70a9af8c
ff08bcc1
76391384
ef4e111f
ae9856b5
2557276c
be470c01
01d94336
d8f8ca80
a24ff518
b0ecd9fb
760bc254
545da95f
0c224022
2d9fb3b0
760bc254
a22bf231
8302048d
331c97c2
dcd0faeb
f6fae4ef
302b162f
8e606015
1bcdae4b
4479e65c
4484b5de
302b162f
e12c39da
1bcdae4b
4479e65c
c25cb08e
3905dd8c
43731ce3
9033f2eb
fb8f1dfa
e7194a33
4484b5de
76d016de
9d4e6c1b
f6fae4ef
b76db145
76d016de
7a985479
38fb4915
76d016de
cd6bb13b
78e71983
11b66316
d40b9319
c25cb08e
331c97c2
038f5c76
76d016de
f9cb16e2
11b66316
3aedb1cd
312ba305
94711489
0fb95966
6f6ace99
eb3c070f
280e1ddd
a9b2b8cb
07a708e8
9d4e6c1b
f6fae4ef
cd555f61
76d016de
b828dc40
5c42cec9
76d016de
a3bc3672
064adc78
11b66316
d40b9319
c25cb08e
331c97c2
ffeaaa1d
76d016de
735a50f6
11b66316
3aedb1cd
046e9a8c
d83fe98f
d8df608c
c521eca9
a10fe993
f6fae4ef
0b5bc104
b521603b
4479e65c
b99d6fc3
6075ad60
6e1e9f87
c02daf97
b521603b
4479e65c
d9b43968
d68f2b43
68af1c82
e9f83f44
07a708e8
d68f2b43
5546a2a0
eac897d9
cd9dffcf
07a708e8
f7bc7ed6
adc1d840
1f00ef18
7d45cd6f
d68f2b43
68af1c82
eac897d9
cd9dffcf
07a708e8
d68f2b43
5546a2a0
e9f83f44
07a708e8
f7bc7ed6
04bdf3d1
1f00ef18
87ef5186
24c628ce
e73515d0
845d8bc3
9ee61499
4479e65c
36cbbfe1
f9662964
49e8f77f
55a505a0
b3af7b5c
eb864d11
0d965d98
1bcdae4b
7a40092c
8e90e1ff
5c5bf1bd
254d7175
6905c0c2
eba87928
330a7230
ea723d90
e7368478
0a8cdf44
810f083b
e872108e
6ffb1fc6
6ad47a63
83d271df
d90e7608
850b69b5
1e9b2f98
798bf49c
521fea9f
ca8a0f8d
b36076b2
81e1ad3f
3f0ea944
39509c6e
b7619174
d9ecbffd
c580ad0b
1eeb0be7
af2062d4
f80fce73
5fa2bbd0
fe27a178
287f5e8e
b4ad12b7
c7394d86
f9662964
c35937a3
55a505a0
166f1447
eb864d11
57e3ffe3
1bcdae4b
bdffd8c1
8e90e1ff
a85727e6
254d7175
f1562797
eba87928
0accb54c
ea723d90
0a8cdf44
ffbf6ea7
e872108e
be9ef5b7
6ad47a63
9ab74a87
d90e7608
f7595245
1e9b2f98
8093c947
521fea9f
32393430
b36076b2
bf5ef621
3f0ea944
752e05e9
b7619174
f06b61db
c580ad0b
b7aea474
e710e928
af2062d4
f80fce73
5fa2bbd0
267be9a7
287f5e8e
899e77ce
f6fae4ef
0fe345e4
2cabb5e9
0b585581
f7a2b312
db3a9e56
12e93373
2225484b
7f7428eb
9c5c37e2
989b1003
bfc97920
13dd925d
8f5b0c27
02e996f8
080bcb4e
2f091f3a
9abd59f6
07c4de59
64ebf38d
b7e246ae
5d8617d2
76391384
367493f0
4fcd7822
617bbf60
13967a07
4e76786d
8302048d
76d016de
12e93373
ab146c38
1c969425
12e93373
2225484b
e6d80cbe
42025ddd
fc6c7880
bcef739e
54a2d1fe
517672ce
0675e80c
6f6ace99
396eb2e4
cf1bbbfb
fb936601
42025ddd
3b2a6504
4f80d932
8593d4e2
7a8dcbd2
eccb4f31
76d016de
7ebb80cb
84aa6070
708c800a
12e93373
ab146c38
1c969425
f7bc7ed6
7acd443b
12e93373
2225484b
fed4cc68
2bd3f515
f865e379
120a02d7
9c2adbdd
03508d20
decedb16
1b87bacc
b84670fa
f06440c1
4479e65c
c25cb08e
c1c94747
ef0a6624
c07f3ec1
02e996f8
157013ac
40502a8f
302b162f
ab146c38
f06440c1
4479e65c
c25cb08e
c1c94747
ef0a6624
76391384
9033f2eb
2f091f3a
157013ac
32540347
9033f2eb
07c4de59
157013ac
42497f22
c07f3ec1
1321b889
617bbf60
b9c5ac0d
708aa7c2
7215c83c
da2aa201
a1f6cea5
c07f3ec1
4ecb2945
4e76786d
626963cd
e91b8e2b
da2aa201
d2bb5bea
c07f3ec1
1321b889
8fc06711
b9c5ac0d
91498c1c
da2aa201
a1f6cea5
f865e379
120a02d7
98146e5b
12fdbf4a
f15b21af
1d82ec5d
3e480861
a9ca298b
e1a95a23
68bc0a62
8f5b0c27
f172b9d2
611813cb
d918cfda
3097fce5
41495f22
7b24a72a
59882368
507d29a8
6d071670
0348c57d
dff3c8de
38d6e920
570563a2
48009910
1b14174b
0f53b60b
535ca7fe
555658ab
3d263c32
45f6f720
95c690b2
9334d642
b7c98f94
0ec26d01
6b0a1a66
a1280450
4fcd7822
bafc2fe8
da34eebd
04e20502
8f5b0c27
e65228f4
54302623
15a5f51b
a9ab384f
8b20f61c
a33a9033
da881e65
cc740de7
b2871786
64351f67
831b6d8f
e25ebc81
f41fcbc3
bebf0302
1fe1df5a
39540ff0
f6aeb2b4
c8a5e4cf
4fb91930
399f98f9
cf41a1e8
b2bffdd0
ac5788cf
fa819240
1fe1df5a
c9694d9c
a352a265
09bc27ca
8810e65b
c8a5e4cf
cd9dffcf
399f98f9
cf41a1e8
b2bffdd0
ac5788cf
fa819240
1fe1df5a
c6c6c2be
eb7535ed
c8a5e4cf
26adb352
399f98f9
cf41a1e8
b2bffdd0
ac5788cf
fa819240
1fe1df5a
c6c6c2be
e45d09ba
c8a5e4cf
cd9dffcf
399f98f9
cf41a1e8
b2bffdd0
ac5788cf
fa819240
7a6ffb7b
3fc9630b
aeb788c6
1fe1df5a
c8a5e4cf
c877f3d5
399f98f9
cf41a1e8
b2bffdd0
ac5788cf
fa819240
aa53fbf3
c8a5e4cf
ce96b5a3
1d82ec5d
3e480861
a9ca298b
e1a95a23
68bc0a62
8f5b0c27
f172b9d2
cc9f6764
d918cfda
f9602f43
399f98f9
f865e379
41495f22
7b24a72a
59882368
507d29a8
6d071670
0348c57d
dff3c8de
38d6e920
570563a2
48009910
b2bffdd0
ac5788cf
1b14174b
0f53b60b
fa819240
79d2bebf
4213cdda
4547ebac
4213cdda
535ca7fe
1e1275da
95ba5b23
24c628ce
f865e379
6faa6d6d
1c168098
29f35491
3edf40a4
12fdbf4a
b2d1f297
7b24a72a
59882368
570563a2
54878037
11131003
7b24a72a
59882368
570563a2
54878037
79d2bebf
4213cdda
4547ebac
4213cdda
1c168098
29f35491
044aebcf
12fdbf4a
989526cc
27395257
570563a2
48009910
555658ab
3d263c32
125d5a1a
95c690b2
9334d642
1e011a87
0ec26d01
6b0a1a66
09bc27ca
4fcd7822
c2547b71
6d071670
54302623
15a5f51b
a9ab384f
5ef7b5b0
27395257
570563a2
48009910
79d2bebf
92468572
4547ebac
92468572
1c168098
29f35491
3bcb9ce7
6fabe988
6d071670
f7333b8e
4fcd7822
c89eef9e
bd79ff78
ed0dc5b2
c88c873e
13967a07
81d7a122
decedb16
cdacdc60
9abd59f6
4ecb2945
450f9aca
88572cf1
7fc56379
0a673662
4fcd7822
a06bf935
9abd59f6
f9f3b4eb
450f9aca
b80abddc
8a1a1895
0a673662
4fcd7822
302b162f
f350357d
8e90e1ff
4479e65c
4484b5de
2d6ac9e4
fc59e8d8
67745422
33a5994a
4efc4b17
4484b5de
8951d6e2
d37eb995
2d2c713b
7fc56379
45126192
4fcd7822
2d6ac9e4
cd9dffcf
d4cce8a2
25962ded
8f5b0c27
cd9dffcf
12fdbf4a
ffbde28b
39540ff0
c9694d9c
18d24789
09bc27ca
3bacbea9
ac7eacab
eaf66720
14e0b797
3bacbea9
3341f7bd
f865e379
24c628ce
20b35c21
3bacbea9
24c628ce
20b35c21
1d82ec5d
3e480861
172444aa
24c628ce
c9bb9dd4
913319aa
f172b9d2
8107474e
8f5b0c27
eac897d9
9abd59f6
7215c83c
c8a5e4cf
4fb91930
1d82ec5d
da7a3a61
a9ca298b
dff3c8de
68bc0a62
dff3c8de
d918cfda
ae56ffb4
94058c0f
32827c67
eccdd777
dff3c8de
942eef97
dff3c8de
63025da5
dff3c8de
9abd59f6
7215c83c
9a24470c
dff3c8de
ea72c529
47dc99a3
34ecde35
0befec37
63025da5
da7a3a61
2efda6fa
6fee016f
d68f2b43
0d2f880d
f0e4a3eb
3ac2eafb
cca3c4f0
5994a4e3
ee9e9ddc
7101264e
3b97439f
9b3f0689
2efda6fa
b2ee86c0
d68f2b43
05241648
f0e4a3eb
2e53f4a3
cca3c4f0
a65239b9
ee9e9ddc
fbca58d0
3b97439f
de742e3b
9a24470c
da7a3a61
ea72c529
47dc99a3
d68f2b43
0d2f880d
2efda6fa
6fee016f
63025da5
da7a3a61
f0e4a3eb
3ac2eafb
cca3c4f0
5994a4e3
f14e006e
76391384
ee9e9ddc
bbe6f138
172cbe66
f0e4a3eb
a6a9cda8
ee9e9ddc
d9849a45
d852de74
d68f2b43
05241648
2efda6fa
b2ee86c0
f0e4a3eb
2e53f4a3
cca3c4f0
a65239b9
982ab61a
76391384
ee9e9ddc
52ab6834
172cbe66
f0e4a3eb
923b05d2
ee9e9ddc
bf3091e0
d852de74
63025da5
dff3c8de
2efda6fa
e12c39da
8593d4e2
6441de41
302b162f
614af3cc
43ddf8ea
302b162f
cd9dffcf
28b30253
8e8f0940
4479e65c
b8a0122b
a1280450
8302048d
8593d4e2
2be0e700
bda1f931
9310dcfe
598c8355
077454d1
146c80b7
bda1f931
c6c6c2be
d61f04cc
598c8355
1552fe56
146c80b7
bda1f931
3d263c32
df320087
598c8355
936d4340
146c80b7
598c8355
21aca816
146c80b7
bda1f931
cd7274ea
598c8355
6906bb2e
146c80b7
bda1f931
c6c6c2be
a5c4d248
598c8355
3b0b6e7c
146c80b7
bda1f931
3d263c32
47679ced
598c8355
119a9837
146c80b7
598c8355
4a2e6aae
9abd59f6
2bd3f515
1cf0b8f9
dff3c8de
98146e5b
699ab2a7
da7a3a61
d68f2b43
cdaf8f3c
1bda85bd
13967a07
302b162f
8e606015
1bcdae4b
4479e65c
4484b5de
302b162f
e12c39da
1bcdae4b
4479e65c
c25cb08e
a1dc88b1
f0ece8c5
9033f2eb
fb8f1dfa
e7194a33
4484b5de
76d016de
8302048d
8bf86d78
c3974959
8aba30c6
c25cb08e
bafc2fe8
4eb325f4
76d016de
f426b6f3
9033f2eb
e65228f4
f426b6f3
c3974959
e7194a33
8a7eccce
9033f2eb
dff3c8de
13967a07
c3974959
a9b2b8cb
a46f1d74
da7a3a61
9b3f0689
d68f2b43
d1161ab2
207ed1b6
13967a07
302b162f
8e606015
1bcdae4b
4479e65c
4484b5de
302b162f
e12c39da
1bcdae4b
4479e65c
c25cb08e
4a6ad28b
6a585ff1
9033f2eb
fb8f1dfa
e7194a33
4484b5de
76d016de
8302048d
48d860da
c3974959
8aba30c6
c25cb08e
bafc2fe8
3127c003
76d016de
e9506609
9033f2eb
e65228f4
e9506609
c3974959
e7194a33
4183f89d
9033f2eb
dff3c8de
13967a07
c3974959
a9b2b8cb
a46f1d74
da7a3a61
de742e3b
699ab2a7
dff3c8de
1cf0b8f9
dff3c8de
98146e5b
9abd59f6
5aca4999
9033f2eb
dbdff635
4e4471b1
8f5b0c27
70e1b76e
5ab4a99a
c25cb08e
8593d4e2
d5275956
302b162f
614af3cc
aad9e81a
302b162f
cd9dffcf
0182e909
13967a07
d4a425f8
e9646138
4479e65c
5ec661e3
49b41076
c8a5e4cf
c91ed772
94058c0f
32827c67
1d82ec5d
da7a3a61
a9ca298b
dff3c8de
68bc0a62
dff3c8de
f172b9d2
8107474e
d918cfda
ae56ffb4
cdf7dd4c
2bd3f515
2efda6fa
f411cc81
ea72c529
4ada98d7
f0e4a3eb
f08c91d1
1e1275da
2014ff2e
a61562fa
2efda6fa
e12c39da
cdf7dd4c
dff3c8de
8593d4e2
bf2acb71
bda1f931
a8646c4d
f0cdefbf
12e93373
614af3cc
1be56663
1f00ef18
0fe458b1
bda1f931
c6c6c2be
e6a06bfc
f0cdefbf
12e93373
614af3cc
f080b44a
1f00ef18
0fe458b1
bda1f931
3d263c32
a8f40b1f
f0cdefbf
12e93373
614af3cc
663137f9
1f00ef18
0fe458b1
f0cdefbf
12e93373
614af3cc
d2317155
1f00ef18
0fe458b1
bda1f931
de11b4be
f0cdefbf
12e93373
cd9dffcf
1be56663
1f00ef18
0fe458b1
bda1f931
c6c6c2be
03c45455
f0cdefbf
12e93373
614af3cc
f080b44a
1f00ef18
0fe458b1
bda1f931
3d263c32
eb76883c
f0cdefbf
12e93373
cd9dffcf
663137f9
1f00ef18
0fe458b1
f0cdefbf
12e93373
cd9dffcf
d2317155
1f00ef18
1cf0b8f9
dff3c8de
98146e5b
dff3c8de
dff3c8de
dff3c8de
dff3c8de
dff3c8de
dff3c8de
dff3c8de
dff3c8de
dff3c8de
dff3c8de
dff3c8de
dff3c8de
dff3c8de
dff3c8de
dff3c8de
dff3c8de
dff3c8de
dff3c8de
dff3c8de
dff3c8de
dff3c8de
dff3c8de
dff3c8de
dff3c8de
dff3c8de
dff3c8de
dff3c8de
dff3c8de
dff3c8de
dff3c8de
dff3c8de
dff3c8de
dff3c8de
dff3c8de
dff3c8de
dff3c8de
dff3c8de
dff3c8de
dff3c8de
dff3c8de
dff3c8de
dff3c8de
dff3c8de
dff3c8de
dff3c8de
dff3c8de
dff3c8de
dff3c8de
dff3c8de
dff3c8de
dff3c8de
dff3c8de
dff3c8de
dff3c8de
dff3c8de
dff3c8de
dff3c8de
dff3c8de
dff3c8de
dff3c8de
dff3c8de
dff3c8de
dff3c8de
dff3c8de
dff3c8de
dff3c8de
dff3c8de
dff3c8de
dff3c8de
dff3c8de
dff3c8de
dff3c8de
dff3c8de
dff3c8de
dff3c8de
dff3c8de
dff3c8de
dff3c8de
dff3c8de
dff3c8de
dff3c8de
dff3c8de
dff3c8de
dff3c8de
dff3c8de
dff3c8de
dff3c8de
dff3c8de
dff3c8de
dff3c8de
dff3c8de
dff3c8de
dff3c8de
dff3c8de
dff3c8de
dff3c8de
dff3c8de
dff3c8de
dff3c8de
dff3c8de
dff3c8de
dff3c8de
dff3c8de
dff3c8de
dff3c8de
dff3c8de
dff3c8de
dff3c8de
dff3c8de
dff3c8de
dff3c8de
dff3c8de
dff3c8de
dff3c8de
dff3c8de
dff3c8de
dff3c8de
dff3c8de
dff3c8de
dff3c8de
dff3c8de
dff3c8de
dff3c8de
dff3c8de
dff3c8de
dff3c8de
dff3c8de
dff3c8de
dff3c8de
dff3c8de
dff3c8de
dff3c8de
dff3c8de
dff3c8de
dff3c8de
dff3c8de
dff3c8de
dff3c8de
dff3c8de
dff3c8de
dff3c8de
dff3c8de
dff3c8de
dff3c8de
dff3c8de
dff3c8de
dff3c8de
dff3c8de
dff3c8de
dff3c8de
dff3c8de
dff3c8de
dff3c8de
dff3c8de
dff3c8de
dff3c8de
dff3c8de
dff3c8de
dff3c8de
dff3c8de
dff3c8de
dff3c8de
dff3c8de
dff3c8de
dff3c8de
dff3c8de
dff3c8de
dff3c8de
dff3c8de
dff3c8de
dff3c8de
dff3c8de
dff3c8de
dff3c8de
dff3c8de
dff3c8de
dff3c8de
dff3c8de
dff3c8de
dff3c8de
dff3c8de
dff3c8de
dff3c8de
dff3c8de
dff3c8de
dff3c8de
dff3c8de
dff3c8de
dff3c8de
dff3c8de
dff3c8de
dff3c8de
dff3c8de
dff3c8de
dff3c8de
dff3c8de
dff3c8de
dff3c8de
dff3c8de
dff3c8de
dff3c8de
dff3c8de
dff3c8de
dff3c8de
dff3c8de
dff3c8de
dff3c8de
dff3c8de
dff3c8de
dff3c8de
dff3c8de
dff3c8de
dff3c8de
dff3c8de
dff3c8de
dff3c8de
dff3c8de
dff3c8de
dff3c8de
dff3c8de
dff3c8de
dff3c8de
dff3c8de
dff3c8de
dff3c8de
dff3c8de
dff3c8de
dff3c8de
dff3c8de
dff3c8de
dff3c8de
dff3c8de
dff3c8de
dff3c8de
dff3c8de
dff3c8de
dff3c8de
dff3c8de
dff3c8de
dff3c8de
dff3c8de
dff3c8de
dff3c8de
dff3c8de
dff3c8de
dff3c8de
dff3c8de
dff3c8de
dff3c8de
dff3c8de
dff3c8de
dff3c8de
dff3c8de
dff3c8de
dff3c8de
dff3c8de
dff3c8de
dff3c8de
dff3c8de
dff3c8de
dff3c8de
dff3c8de
dff3c8de
dff3c8de
dff3c8de
dff3c8de
dff3c8de
dff3c8de
dff3c8de
dff3c8de
dff3c8de
dff3c8de
dff3c8de
dff3c8de
dff3c8de
dff3c8de
dff3c8de
dff3c8de
dff3c8de
dff3c8de
dff3c8de
dff3c8de
dff3c8de
dff3c8de
dff3c8de
dff3c8de
dff3c8de
dff3c8de
dff3c8de
dff3c8de
dff3c8de
dff3c8de
dff3c8de
dff3c8de
dff3c8de
dff3c8de
dff3c8de
dff3c8de
dff3c8de
dff3c8de
dff3c8de
dff3c8de
dff3c8de
dff3c8de
dff3c8de
dff3c8de
dff3c8de
dff3c8de
dff3c8de
dff3c8de
dff3c8de
dff3c8de
dff3c8de
dff3c8de
dff3c8de
dff3c8de
dff3c8de
dff3c8de
dff3c8de
dff3c8de
dff3c8de
dff3c8de
dff3c8de
dff3c8de
dff3c8de
dff3c8de
dff3c8de
dff3c8de
dff3c8de
dff3c8de
dff3c8de
dff3c8de
dff3c8de
dff3c8de
dff3c8de
dff3c8de
dff3c8de
dff3c8de
dff3c8de
dff3c8de
dff3c8de
dff3c8de
dff3c8de
dff3c8de
dff3c8de
dff3c8de
dff3c8de
dff3c8de
dff3c8de
dff3c8de
dff3c8de
dff3c8de
dff3c8de
dff3c8de
dff3c8de
dff3c8de
dff3c8de
dff3c8de
dff3c8de
dff3c8de
dff3c8de
dff3c8de
dff3c8de
dff3c8de
dff3c8de
dff3c8de
dff3c8de
dff3c8de
dff3c8de
dff3c8de
dff3c8de
dff3c8de
dff3c8de
dff3c8de
dff3c8de
dff3c8de
dff3c8de
dff3c8de
dff3c8de
dff3c8de
dff3c8de
dff3c8de
dff3c8de
dff3c8de
dff3c8de
dff3c8de
dff3c8de
dff3c8de
dff3c8de
dff3c8de
dff3c8de
dff3c8de
dff3c8de
dff3c8de
dff3c8de
dff3c8de
dff3c8de
dff3c8de
dff3c8de
dff3c8de
dff3c8de
dff3c8de
dff3c8de
dff3c8de
dff3c8de
dff3c8de
dff3c8de
dff3c8de
dff3c8de
dff3c8de
dff3c8de
dff3c8de
dff3c8de
dff3c8de
dff3c8de
dff3c8de
dff3c8de
dff3c8de
dff3c8de
dff3c8de
dff3c8de
dff3c8de
dff3c8de
dff3c8de
dff3c8de
dff3c8de
dff3c8de
dff3c8de
dff3c8de
dff3c8de
dff3c8de
dff3c8de
dff3c8de
dff3c8de
dff3c8de
dff3c8de
dff3c8de
dff3c8de
dff3c8de
dff3c8de
dff3c8de
dff3c8de
dff3c8de
dff3c8de
dff3c8de
dff3c8de
dff3c8de
dff3c8de
dff3c8de
dff3c8de
dff3c8de
dff3c8de
dff3c8de
dff3c8de
dff3c8de
dff3c8de
dff3c8de
dff3c8de
dff3c8de
dff3c8de
dff3c8de
dff3c8de
dff3c8de
dff3c8de
dff3c8de
dff3c8de
dff3c8de
dff3c8de
dff3c8de
dff3c8de
dff3c8de
dff3c8de
dff3c8de
dff3c8de
dff3c8de
dff3c8de
dff3c8de
dff3c8de
dff3c8de
dff3c8de
dff3c8de
dff3c8de
dff3c8de
dff3c8de
dff3c8de
dff3c8de
dff3c8de
dff3c8de
dff3c8de
dff3c8de
dff3c8de
dff3c8de
dff3c8de
dff3c8de
dff3c8de
dff3c8de
dff3c8de
dff3c8de
dff3c8de
dff3c8de
dff3c8de
dff3c8de
dff3c8de
dff3c8de
dff3c8de
dff3c8de
dff3c8de
dff3c8de
dff3c8de
dff3c8de
dff3c8de
dff3c8de
dff3c8de
dff3c8de
dff3c8de
dff3c8de
dff3c8de
dff3c8de
dff3c8de
dff3c8de
dff3c8de
dff3c8de
dff3c8de
dff3c8de
dff3c8de
dff3c8de
dff3c8de
dff3c8de
dff3c8de
dff3c8de
dff3c8de
dff3c8de
dff3c8de
dff3c8de
dff3c8de
dff3c8de
dff3c8de
dff3c8de
dff3c8de
dff3c8de
dff3c8de
dff3c8de
dff3c8de
dff3c8de
dff3c8de
dff3c8de
dff3c8de
dff3c8de
dff3c8de
dff3c8de
dff3c8de
dff3c8de
dff3c8de
dff3c8de
dff3c8de
dff3c8de
dff3c8de
dff3c8de
dff3c8de
dff3c8de
dff3c8de
dff3c8de
dff3c8de
dff3c8de
dff3c8de
dff3c8de
dff3c8de
dff3c8de
dff3c8de
dff3c8de
dff3c8de
dff3c8de
dff3c8de
dff3c8de
dff3c8de
dff3c8de
dff3c8de
dff3c8de
dff3c8de
dff3c8de
dff3c8de
dff3c8de
dff3c8de
dff3c8de
dff3c8de
dff3c8de
dff3c8de
dff3c8de
dff3c8de
dff3c8de
dff3c8de
dff3c8de
dff3c8de
dff3c8de
dff3c8de
dff3c8de
c69203e7
41495f22
7b24a72a
59882368
507d29a8
635c5cd8
38d6e920
67b3acb8
1b14174b
0f53b60b
416bf94d
af45ca8c
dd59734f
b3656fb8
287f5e8e
08115428
be5ab206
15a5f51b
bafc2fe8
e4d0756c
2965f59e
79d2bebf
e65228f4
5fa2bbd0
195a264c
be5ab206
a9ab384f
bafc2fe8
c290bf5a
ba722b4a
4547ebac
e65228f4
535ca7fe
1d82ec5d
2225484b
a9ca298b
0fb95966
68bc0a62
8f5b0c27
f172b9d2
611813cb
d918cfda
3097fce5
8b20f61c
c86325a1
7b579dae
cc740de7
90bdf10f
64351f67
026a6b19
e25ebc81
2493e4fa
bebf0302
9f4c026e
39540ff0
e7da1632
c8a5e4cf
4fb91930
399f98f9
89f03727
b2bffdd0
29409783
fa819240
9f4c026e
c9694d9c
a352a265
09bc27ca
abe53852
c8a5e4cf
cd9dffcf
399f98f9
919ac325
b2bffdd0
b30ef432
fa819240
9f4c026e
c6c6c2be
b332d254
c8a5e4cf
26adb352
399f98f9
89f03727
b2bffdd0
29409783
fa819240
9f4c026e
c6c6c2be
4eae7306
d25bdc49
399f98f9
1c8bd8d2
28a51fcb
dff3c8de
7b24a72a
dff3c8de
507d29a8
e65228f4
deecd899
dff3c8de
570563a2
dff3c8de
b2bffdd0
3ff6c66e
1b14174b
28476a82
20516118
add9d1d9
9033f2eb
3201dd75
08115428
be5ab206
15a5f51b
bafc2fe8
bf71959c
619b10a6
79d2bebf
e65228f4
9033f2eb
3201dd75
195a264c
be5ab206
a9ab384f
bafc2fe8
9fab2235
8e6458b6
4547ebac
e65228f4
00fcc269
dff3c8de
0348c57d
dff3c8de
2a9b9315
dff3c8de
988919cd
dff3c8de
f0c71dc3
dff3c8de
110b92e3
90131898
a00bb8f8
90131898
c8a5e4cf
e65228f4
1d82ec5d
2225484b
a9ca298b
40714556
68bc0a62
7a5acefc
f172b9d2
b5770730
d918cfda
52074954
4d3c8fd4
3cead07b
c7a98b24
646aec6a
34215399
dff3c8de
e9bb4b9d
dff3c8de
98f4fcbc
dff3c8de
848042b1
dff3c8de
c6cd2b67
2f1681db
94058c0f
32827c67
9f4c026e
c8a5e4cf
c877f3d5
399f98f9
89f03727
b2bffdd0
29409783
fa819240
4b60dd14
f1728904
1e1275da
27b5eda5
24c628ce
f865e379
6faa6d6d
31335253
27395257
507d29a8
26adb352
a9ca298b
40714556
68bc0a62
7a5acefc
f172b9d2
b5770730
d918cfda
1da8bb7e
8b20f61c
97a0852e
9b383209
cc740de7
d167efa7
64351f67
a5d4271c
e25ebc81
bb368cdd
bebf0302
729ebae6
39540ff0
506cb5b8
c8a5e4cf
cd9dffcf
399f98f9
919ac325
b2bffdd0
c86df7bc
fa819240
729ebae6
c9694d9c
a352a265
09bc27ca
da6f600e
c8a5e4cf
e65228f4
399f98f9
090512f6
b2bffdd0
bac03ad4
fa819240
729ebae6
c6c6c2be
ca85743e
c8a5e4cf
c877f3d5
399f98f9
919ac325
b2bffdd0
c86df7bc
fa819240
729ebae6
c6c6c2be
0fb95848
2ae8e02b
399f98f9
919ac325
28a51fcb
dff3c8de
7b24a72a
dff3c8de
507d29a8
c91ed772
deecd899
dff3c8de
570563a2
dff3c8de
b2bffdd0
3ff6c66e
1b14174b
28476a82
20516118
add9d1d9
9033f2eb
3201dd75
08115428
be5ab206
15a5f51b
bafc2fe8
d7e61d09
b93dbcc4
79d2bebf
e65228f4
9033f2eb
3201dd75
195a264c
be5ab206
a9ab384f
bafc2fe8
743f3b2d
b6cd5380
4547ebac
e65228f4
00fcc269
dff3c8de
0348c57d
dff3c8de
2a9b9315
dff3c8de
988919cd
dff3c8de
f0c71dc3
dff3c8de
110b92e3
90131898
a00bb8f8
90131898
c8a5e4cf
e65228f4
1d82ec5d
2225484b
a9ca298b
40714556
68bc0a62
7a5acefc
f172b9d2
b5770730
d918cfda
52074954
4d3c8fd4
3cead07b
c7a98b24
646aec6a
34215399
dff3c8de
e9bb4b9d
dff3c8de
98f4fcbc
dff3c8de
848042b1
dff3c8de
c6cd2b67
2f1681db
94058c0f
32827c67
729ebae6
c8a5e4cf
4fb91930
399f98f9
919ac325
b2bffdd0
c86df7bc
fa819240
4b60dd14
ba300dbe
1e1275da
8b3e43aa
24c628ce
f865e379
6faa6d6d
31335253
f865e379
24c628ce
4d0c5d4a
5dc1889e
a9ca298b
f80fa0d6
d918cfda
3097fce5
41495f22
7b24a72a
92468572
507d29a8
1321b889
0348c57d
dff3c8de
570563a2
54878037
8b20f61c
327f831e
3ed6ad58
cc740de7
f4f77e67
64351f67
e579688d
e25ebc81
617d38ba
bebf0302
2206642b
39540ff0
718977d3
c8a5e4cf
e65228f4
399f98f9
cf41a1e8
b2bffdd0
ac5788cf
fa819240
c9694d9c
a352a265
09bc27ca
b20b29de
c8a5e4cf
c91ed772
399f98f9
cf41a1e8
b2bffdd0
ac5788cf
fa819240
2206642b
c6c6c2be
e2475d5d
c8a5e4cf
4fb91930
399f98f9
cf41a1e8
b2bffdd0
ac5788cf
fa819240
2206642b
c6c6c2be
6278d590
f293e78a
c8a5e4cf
c91ed772
399f98f9
cf41a1e8
b2bffdd0
ac5788cf
fa819240
7a6ffb7b
3fc9630b
aeb788c6
2206642b
c8a5e4cf
cd9dffcf
399f98f9
cf41a1e8
b2bffdd0
ac5788cf
fa819240
7ab0c0d1
2b97d872
287f5e8e
08115428
be5ab206
15a5f51b
5fa2bbd0
195a264c
be5ab206
a9ab384f
31335253
302b162f
e65228f4
29f35491
4479e65c
b6748acf
7b24a72a
9d8fa0af
570563a2
48009910
8b20f61c
f916c8c5
3ed6ad58
cc740de7
f4f77e67
64351f67
e579688d
e25ebc81
617d38ba
bebf0302
5cad6ada
39540ff0
8e1f2ea8
c8a5e4cf
e65228f4
399f98f9
cf41a1e8
b2bffdd0
ac5788cf
fa819240
5cad6ada
c9694d9c
a352a265
09bc27ca
c0d11590
c8a5e4cf
c91ed772
399f98f9
cf41a1e8
b2bffdd0
ac5788cf
fa819240
5cad6ada
c6c6c2be
538397cb
c8a5e4cf
4fb91930
399f98f9
cf41a1e8
b2bffdd0
ac5788cf
fa819240
5cad6ada
c6c6c2be
25c2373b
abc6d0cf
c8a5e4cf
c91ed772
399f98f9
cf41a1e8
b2bffdd0
ac5788cf
fa819240
7a6ffb7b
3fc9630b
aeb788c6
5cad6ada
c8a5e4cf
cd9dffcf
399f98f9
cf41a1e8
b2bffdd0
ac5788cf
fa819240
7ab0c0d1
55f27617
0ec26d01
15a5f51b
95c690b2
a9ab384f
31335253
302b162f
e65228f4
29f35491
4479e65c
3edf40a4
1d82ec5d
15a3ee1c
a9ca298b
c1bb69e4
7b24a72a
92468572
507d29a8
8f5b0c27
570563a2
54878037
8b20f61c
9eee27c7
3ed6ad58
cc740de7
f4f77e67
64351f67
e579688d
e25ebc81
617d38ba
bebf0302
5618ae97
39540ff0
832adfd5
c8a5e4cf
e65228f4
399f98f9
cf41a1e8
b2bffdd0
ac5788cf
fa819240
5618ae97
c9694d9c
a352a265
09bc27ca
79c8f2b1
c8a5e4cf
c91ed772
399f98f9
cf41a1e8
b2bffdd0
ac5788cf
fa819240
5618ae97
c6c6c2be
4fb2d254
c8a5e4cf
4fb91930
399f98f9
cf41a1e8
b2bffdd0
ac5788cf
fa819240
5618ae97
c6c6c2be
a6addff4
c50b264e
c8a5e4cf
c91ed772
399f98f9
cf41a1e8
b2bffdd0
ac5788cf
fa819240
7a6ffb7b
3fc9630b
aeb788c6
5618ae97
c8a5e4cf
cd9dffcf
399f98f9
cf41a1e8
b2bffdd0
ac5788cf
fa819240
12e93373
c91ed772
4c9943a3
1f00ef18
7ab0c0d1
bd09e8ba
195a264c
0ec26d01
914be436
a1280450
a9ab384f
31335253
302b162f
e65228f4
a44fea6d
4479e65c
044aebcf
7b24a72a
9d8fa0af
570563a2
48009910
8b20f61c
4f168e43
3ed6ad58
cc740de7
f4f77e67
64351f67
e579688d
e25ebc81
617d38ba
bebf0302
fb466af9
39540ff0
1176c282
c8a5e4cf
e65228f4
399f98f9
cf41a1e8
b2bffdd0
ac5788cf
fa819240
fb466af9
c9694d9c
a352a265
09bc27ca
1b02dc2c
c8a5e4cf
c91ed772
399f98f9
cf41a1e8
b2bffdd0
ac5788cf
fa819240
fb466af9
c6c6c2be
1fe51bef
c8a5e4cf
4fb91930
399f98f9
cf41a1e8
b2bffdd0
ac5788cf
fa819240
fb466af9
c6c6c2be
24b86a50
91c4fbea
c8a5e4cf
c91ed772
399f98f9
cf41a1e8
b2bffdd0
ac5788cf
fa819240
7a6ffb7b
3fc9630b
aeb788c6
fb466af9
c8a5e4cf
cd9dffcf
399f98f9
cf41a1e8
b2bffdd0
ac5788cf
fa819240
12e93373
c91ed772
4c9943a3
1f00ef18
7ab0c0d1
59d63971
195a264c
0ec26d01
fcc63b34
be5ab206
a9ab384f
31335253
302b162f
e65228f4
a44fea6d
4479e65c
e9646138
b2aa205c
45126192
e3593659
6e1e9f87
a9b2b8cb
d68f2b43
68af1c82
07a708e8
7a8fddfc
45126192
c4c6085e
a9b2b8cb
d68f2b43
5546a2a0
07a708e8
87ef5186
1d82ec5d
2225484b
a9ca298b
6300c5d0
c9174ef6
28a51fcb
05920ab1
7b24a72a
189d7546
b22227cd
56029bce
67b3acb8
8b20f61c
51e1181f
6b572caf
cc740de7
7864b197
39540ff0
9d2cf643
c8a5e4cf
4fb91930
7864b197
c9694d9c
a352a265
09bc27ca
2423d2d7
c8a5e4cf
4fb91930
7864b197
c6c6c2be
215850a8
c8a5e4cf
4fb91930
7864b197
c6c6c2be
2aa67b66
513033ad
c8a5e4cf
4fb91930
7a6ffb7b
3fc9630b
aeb788c6
7864b197
c8a5e4cf
4fb91930
7ab0c0d1
52d562de
1e1275da
d1882d57
24c628ce
f865e379
6faa6d6d
f09b5b48
f09b5b48
4da5465f
1e1275da
ada53e87
71de3a65
89dd75be
bfc97920
9a24470c
70e1b76e
c3974959
83aa9468
4abeaa20
c07f3ec1
3201dd75
f0cdefbf
ade32163
8fd2c483
d9636730
be4ffcaf
c9ee9369
22a2601c
12e93373
553f5669
8748a2a4
1f00ef18
4b202f24
f09b5b48
f09b5b48
8302048d
cbbf4a27
d9636730
013fef88
d9636730
5fa9a970
1e1275da
daaf5c15
effff3d6
e39fc2f3
8af9712f
6e80ede8
feac2d92
ebc9dd5c
302b162f
c2859c83
e4291475
4479e65c
8302048d
e3d87865
302b162f
c2859c83
5a86eb71
4479e65c
76391384
b7e246ae
5043e1a7
be470c01
c7181318
bad16e6b
e288e45d
51cc4f2d
d2fbcf8b
6f6b93b9
17446807
81d3847a
e6ed7577
be4ffcaf
d064c0ef
5ca087ab
c9ee9369
22a2601c
12e93373
553f5669
8748a2a4
1f00ef18
4b202f24
46f11c0b
bfc97920
1e1275da
63aa8a36
8ad117d5
f09b5b48
f09b5b48
8302048d
cbbf4a27
2a6068fa
5832cd22
e3350b10
1c519e56
c811f1b6
c7181318
1d602968
c811f1b6
3d263c32
13967a07
c6ad3021
ed0dc5b2
c6ad3021
013fef88
1d99c481
0cccc04b
8518e5ec
9abd59f6
b261fc51
c811f1b6
e77a2684
52fee2b9
c811f1b6
ab417d03
13967a07
c6ad3021
080bcb4e
3bf51c71
7034de00
607e20ec
3d3138bf
a889b5ad
5cde3820
5ca087ab
1d017044
be4ffcaf
c9ee9369
22a2601c
12e93373
553f5669
8748a2a4
1f00ef18
4b202f24
c6ad3021
1e1275da
bbc8d393
8ad117d5
12e93373
553f5669
043cff6a
1f00ef18
a9ca298b
2ded2969
8b20f61c
4a252df6
6b572caf
cc740de7
f2354605
39540ff0
75f9fe23
c8a5e4cf
4fb91930
f2354605
c9694d9c
a352a265
09bc27ca
924b293e
c8a5e4cf
4fb91930
f2354605
c6c6c2be
b7577ef3
c8a5e4cf
4fb91930
f2354605
c6c6c2be
a2013465
8be2b40e
c8a5e4cf
4fb91930
7a6ffb7b
3fc9630b
aeb788c6
f2354605
c8a5e4cf
4fb91930
7ab0c0d1
d21ccbf6
1e1275da
5fb497d1
24c628ce
f865e379
6faa6d6d
b2aa205c
45126192
914be436
6e1e9f87
a9b2b8cb
d68f2b43
68af1c82
07a708e8
7a8fddfc
45126192
3bcb9ce7
a9b2b8cb
d68f2b43
5546a2a0
07a708e8
87ef5186
89dd75be
c3974959
37ae868d
170d3af1
5080821c
f0cdefbf
be470c01
0ae0e493
5ca087ab
c9ee9369
22a2601c
12e93373
553f5669
8748a2a4
1f00ef18
4b202f24
f09b5b48
f09b5b48
8302048d
cbbf4a27
0ae0e493
013fef88
0ae0e493
5fa9a970
1e1275da
b7ce4108
3caad7a6
b113c1f2
bb4914a7
6e80ede8
feac2d92
ebc9dd5c
302b162f
c2859c83
e4291475
4479e65c
8302048d
e3d87865
302b162f
c2859c83
5a86eb71
4479e65c
5043e1a7
e77a2684
6e06dcb9
6d006612
5fa9a970
d2fbcf8b
be470c01
e1988e7d
3341f7bd
06d410f1
be4ffcaf
556e3971
5ca087ab
c9ee9369
22a2601c
12e93373
553f5669
8748a2a4
1f00ef18
4b202f24
c54f0fb6
12e93373
553f5669
043cff6a
1f00ef18
1f7d40fd
e288baa3
4479e65c
76391384
f3ede092
1a7bc253
4479e65c
7b94b1ae
6163c191
34fe9ad3
b454020e
f277d795
93b47f3b
1e6e41ad
45126192
c25cb08e
a052a391
59fbef26
76d016de
ebd19356
e7194a33
af737e0e
76d016de
ebd19356
8fc06711
c25cb08e
1a690fa6
ab78148b
5ca087ab
c9ee9369
22a2601c
12e93373
553f5669
8748a2a4
1f00ef18
4b202f24
5fa9a970
1e1275da
abb18038
3caad7a6
eb56c8fe
76d016de
ebd19356
4699ff47
ebd19356
ade32163
45126192
c25cb08e
157013ac
e7194a33
d8d557b1
76d016de
fdbfdc1c
cc0170c4
c25cb08e
0395de5c
ab78148b
be4ffcaf
c9ee9369
22a2601c
12e93373
553f5669
8748a2a4
1f00ef18
4b202f24
5fa9a970
1e1275da
d90a7dba
effff3d6
acfbd94c
76d016de
fdbfdc1c
4699ff47
fdbfdc1c
12e93373
553f5669
043cff6a
1f00ef18
7ab0c0d1
06d7d157
845d8bc3
9ee61499
4479e65c
b8d85ace
c811f1b6
b6748acf
b1bbe77e
12e93373
fc59e8d8
9c487466
1f00ef18
d9e01377
b6789043
629ec51c
c811f1b6
b6748acf
60234b01
12e93373
fc59e8d8
68ce6535
1f00ef18
42d592c1
1e1275da
05ce8859
8ad117d5
172444aa
24c628ce
c2fbaf22
4fcd7822
c02daf97
03669ce7
4479e65c
841968d7
8f5b0c27
e12c39da
54302623
302b162f
c2010a56
0ca37d78
4479e65c
bd7590c7
e7194a33
e5c2ef66
d4f17f43
6e55f149
4484b5de
805e8dbc
0ae1548e
4fcd7822
2d6ac9e4
4cdcd88d
bc56d56e
4c24701a
2d6ac9e4
4cdcd88d
16f17444
229bbe1a
f6fae4ef
3d44feb7
2a0fe63e
4479e65c
f7bc7ed6
50532caf
f7a2b312
50532caf
f7bc7ed6
54c6eb0c
f7a2b312
54c6eb0c
1f00ef18
12e93373
45beb1fd
707cdb6e
7215c83c
1f00ef18
0b5bc104
7f56d01e
4479e65c
aecf28e4
42d592c1
45b20927
12e93373
45beb1fd
707cdb6e
2bd3f515
1f00ef18
0b5bc104
7f56d01e
4479e65c
9b36ef17
10bcbf81
12e93373
fb6032d0
54af9c66
1f00ef18
f306f821
f9f0895c
b4dbe7c2
f7a2b312
7bfd5e9f
1f00ef18
f6fae4ef
685b26b6
8fd2c483
de587751
c2e0b5c1
48439501
8fd2c483
388d8c1a
c2e0b5c1
bfd4adeb
8fd2c483
de5a7567
c2e0b5c1
94c476fe
8fd2c483
283dca83
c2e0b5c1
9033f2eb
8e9db461
8fd2c483
c80ad980
c2e0b5c1
9033f2eb
40f21787
8fd2c483
130edd27
c2e0b5c1
9033f2eb
4aa96264
8fd2c483
71090602
c2e0b5c1
9033f2eb
c877f3d5
8fd2c483
eab480cc
c2e0b5c1
9033f2eb
578cdbf5
8fd2c483
f6fae4ef
7ce78791
8fd2c483
60d26710
e7891854
71ad0ba4
8fd2c483
bb7558c9
e7891854
be9f1435
8fd2c483
20702b1b
e7891854
9033f2eb
fb6032d0
8fd2c483
d432cda8
e7891854
9033f2eb
db16a550
8fd2c483
57b1c4bb
e7891854
9033f2eb
45beb1fd
8fd2c483
c1015e41
e7891854
9033f2eb
ab146c38
8fd2c483
b998b85c
e7891854
9033f2eb
4ecb2945
8fd2c483
f84e9d8c
e7891854
9033f2eb
23cab1c1
8fd2c483
f6fae4ef
68bc0a62
8f5b0c27
f172b9d2
611813cb
d918cfda
3097fce5
7b24a72a
59882368
507d29a8
553f5669
8b20f61c
22a0f77f
dcb7e6c2
cc740de7
b8322768
64351f67
d3a67151
e25ebc81
25731260
bebf0302
5bdb2d6f
39540ff0
2aca8e98
c8a5e4cf
4fb91930
399f98f9
ed0dc5b2
b2bffdd0
34158995
fa819240
5bdb2d6f
c9694d9c
a352a265
09bc27ca
f362803f
c8a5e4cf
cd9dffcf
399f98f9
ed0dc5b2
b2bffdd0
34158995
fa819240
5bdb2d6f
c6c6c2be
a50308a0
c8a5e4cf
26adb352
399f98f9
ed0dc5b2
b2bffdd0
34158995
fa819240
5bdb2d6f
c6c6c2be
6bb33388
09bf4c62
399f98f9
cf41a1e8
28a51fcb
dff3c8de
7b24a72a
dff3c8de
507d29a8
e65228f4
deecd899
dff3c8de
570563a2
dff3c8de
b2bffdd0
58216b6d
1b14174b
28476a82
20516118
add9d1d9
9033f2eb
3201dd75
08115428
be5ab206
15a5f51b
bafc2fe8
00ba3483
674cd425
79d2bebf
e65228f4
9033f2eb
3201dd75
195a264c
be5ab206
a9ab384f
bafc2fe8
3472e489
b4491dcc
4547ebac
e65228f4
00fcc269
dff3c8de
0348c57d
dff3c8de
2a9b9315
dff3c8de
988919cd
dff3c8de
f0c71dc3
dff3c8de
110b92e3
90131898
a00bb8f8
90131898
c8a5e4cf
e65228f4
1d82ec5d
2225484b
a9ca298b
40714556
68bc0a62
7a5acefc
f172b9d2
b5770730
d918cfda
52074954
4d3c8fd4
3cead07b
c7a98b24
646aec6a
34215399
dff3c8de
e9bb4b9d
dff3c8de
98f4fcbc
dff3c8de
848042b1
dff3c8de
c6cd2b67
2f1681db
94058c0f
32827c67
5bdb2d6f
c8a5e4cf
c877f3d5
399f98f9
ed0dc5b2
b2bffdd0
34158995
fa819240
4b60dd14
167f6900
1e1275da
59f06390
24c628ce
f865e379
6faa6d6d
31335253
302b162f
8107474e
98192815
4479e65c
167f6900
302b162f
cf3c97b1
eb864d11
4479e65c
2356f44d
ebd20ed6
227fccaa
39540ff0
c9694d9c
18d24789
09bc27ca
a3b2f1de
12e93373
cf3c97b1
a9ca298b
7215c83c
0a5bb5ef
a9ca298b
7215c83c
f7bc7ed6
c9174ef6
f7bc7ed6
5d1ac3dd
12e93373
45beb1fd
c5609579
9794ab26
c8a5e4cf
fb8f1dfa
7c2f44ef
c1bef076
187a267a
013d198c
187a267a
f829a51b
39540ff0
c9694d9c
18d24789
09bc27ca
5cf04b13
12e93373
ab146c38
b2bffdd0
eda3c92a
12e93373
ab146c38
b2bffdd0
47dc99a3
1f00ef18
1f16c21d
c30b469b
744275d3
79d2bebf
e65228f4
4547ebac
e65228f4
31335253
c3974959
15a5f51b
f306f821
a9ab384f
a9ca298b
503062de
d918cfda
52074954
28a51fcb
05920ab1
7b24a72a
189d7546
507d29a8
d1692016
0348c57d
26adb352
8b20f61c
fc7a78d4
7ef3f50b
cc740de7
e451ab5a
64351f67
16f59a05
e25ebc81
70154e21
bebf0302
6d629815
39540ff0
44b30a87
c8a5e4cf
cd9dffcf
399f98f9
f7bc7ed6
b2bffdd0
ac5788cf
20516118
863d970d
6d629815
c9694d9c
a352a265
09bc27ca
46ff0535
c8a5e4cf
e65228f4
399f98f9
172444aa
b2bffdd0
6ac0b8a4
20516118
ac8199d1
6d629815
c6c6c2be
f2477f11
c8a5e4cf
c877f3d5
399f98f9
f865e379
b2bffdd0
ac5788cf
20516118
863d970d
6d629815
c6c6c2be
77790975
7f004ecb
399f98f9
3bacbea9
28a51fcb
d9d1ce57
7b24a72a
189d7546
507d29a8
d1692016
deecd899
dff3c8de
570563a2
dff3c8de
b2bffdd0
58216b6d
1b14174b
eb1bfb6d
20516118
add9d1d9
9033f2eb
3201dd75
08115428
be5ab206
15a5f51b
bafc2fe8
00a31af0
de336f03
79d2bebf
e65228f4
9033f2eb
3201dd75
195a264c
be5ab206
a9ab384f
bafc2fe8
d68cb81c
49a684b3
4547ebac
e65228f4
00fcc269
dff3c8de
0348c57d
c2859c83
2a9b9315
dff3c8de
988919cd
dff3c8de
f0c71dc3
dff3c8de
110b92e3
90131898
a00bb8f8
90131898
c8a5e4cf
c91ed772
1d82ec5d
2225484b
a9ca298b
503062de
68bc0a62
8f5b0c27
f172b9d2
611813cb
d918cfda
52074954
4d3c8fd4
3cead07b
c7a98b24
c91ed772
34215399
dff3c8de
e9bb4b9d
dff3c8de
98f4fcbc
dff3c8de
848042b1
dff3c8de
c6cd2b67
dff3c8de
94058c0f
32827c67
6d629815
c8a5e4cf
4fb91930
399f98f9
f7bc7ed6
b2bffdd0
ac5788cf
20516118
863d970d
6e14a4a0
7762f086
1e1275da
d905e41b
24c628ce
f865e379
6faa6d6d
31335253
302b162f
e65228f4
29f35491
4479e65c
13967a07
302b162f
5006d247
0348c57d
dff3c8de
41f4d412
4479e65c
2baada8d
76625daa
1e1275da
ed9d66f4
24c628ce
3bacbea9
3717c074
8302048d
38132d2e
41e23522
ec88b862
24210435
13967a07
08115428
c3974959
09bc27ca
b3656fb8
302b162f
e65228f4
a44fea6d
4479e65c
13967a07
302b162f
5006d247
41f4d412
4479e65c
0c9d3510
ff046c0e
598c8355
6e53c848
41e23522
b51411dc
24210435
13967a07
195a264c
c3974959
09bc27ca
af45ca8c
3bacbea9
ae9f377b
a9ca298b
503062de
68bc0a62
8f5b0c27
d918cfda
52074954
507d29a8
d1692016
0348c57d
26adb352
8b20f61c
fa98b728
1047db91
cc740de7
0a0b41ee
64351f67
c0c73b6d
e25ebc81
a3254b46
bebf0302
5c6fd63d
39540ff0
58750cfe
c8a5e4cf
cd9dffcf
399f98f9
89f03727
b2bffdd0
34158995
20516118
134908dc
5c6fd63d
c9694d9c
a352a265
09bc27ca
1fb0a50c
c8a5e4cf
e65228f4
399f98f9
919ac325
b2bffdd0
5e1410db
ca882e5f
5c6fd63d
c6c6c2be
51b70ce0
c8a5e4cf
c877f3d5
399f98f9
89f03727
b2bffdd0
34158995
20516118
134908dc
5c6fd63d
c6c6c2be
69606095
08ea9ed0
399f98f9
3bacbea9
28a51fcb
d9d1ce57
7b24a72a
189d7546
507d29a8
d1692016
deecd899
dff3c8de
570563a2
dff3c8de
b2bffdd0
58216b6d
1b14174b
eb1bfb6d
20516118
add9d1d9
9033f2eb
3201dd75
08115428
be5ab206
15a5f51b
bafc2fe8
1aa3b86c
3afca6fd
79d2bebf
e65228f4
9033f2eb
3201dd75
195a264c
be5ab206
a9ab384f
bafc2fe8
a8193e1b
152e10cf
4547ebac
e65228f4
00fcc269
dff3c8de
0348c57d
c2859c83
2a9b9315
dff3c8de
988919cd
dff3c8de
f0c71dc3
dff3c8de
110b92e3
90131898
a00bb8f8
90131898
c8a5e4cf
c91ed772
1d82ec5d
2225484b
a9ca298b
c9190264
68bc0a62
8f5b0c27
f172b9d2
611813cb
d918cfda
52074954
4d3c8fd4
3cead07b
c7a98b24
c91ed772
34215399
dff3c8de
e9bb4b9d
dff3c8de
98f4fcbc
dff3c8de
848042b1
dff3c8de
c6cd2b67
dff3c8de
94058c0f
32827c67
5c6fd63d
c8a5e4cf
4fb91930
399f98f9
89f03727
b2bffdd0
34158995
20516118
134908dc
6e14a4a0
d028a999
287f5e8e
08115428
be5ab206
15a5f51b
5fa2bbd0
195a264c
be5ab206
a9ab384f
1e1275da
2fe7b081
24c628ce
f865e379
6faa6d6d
31335253
302b162f
e65228f4
29f35491
4479e65c
13967a07
302b162f
5006d247
41f4d412
4479e65c
e7870993
36b9d3e0
1e1275da
4f17c97e
24c628ce
3bacbea9
3717c074
8302048d
04d16340
41e23522
2f414128
24210435
13967a07
08115428
c3974959
09bc27ca
b3656fb8
302b162f
e65228f4
a44fea6d
4479e65c
13967a07
302b162f
5006d247
41f4d412
4479e65c
6c7fd537
6dd7a07e
598c8355
02c8dc38
41e23522
a27e2cda
24210435
13967a07
195a264c
c3974959
09bc27ca
af45ca8c
12e93373
553f5669
8748a2a4
1f00ef18
302b162f
fb6032d0
98192815
4479e65c
f865e379
5b8c7a30
8f5b0c27
868000c5
81a96dfa
868000c5
a8e77fdd
c261ed48
7ff931fc
913319aa
dff3c8de
dff3c8de
dff3c8de
dff3c8de
dff3c8de
dff3c8de
dff3c8de
dff3c8de
dff3c8de
dff3c8de
dff3c8de
dff3c8de
dff3c8de
dff3c8de
dff3c8de
dff3c8de
dff3c8de
dff3c8de
dff3c8de
dff3c8de
dff3c8de
dff3c8de
dff3c8de
dff3c8de
dff3c8de
dff3c8de
dff3c8de
dff3c8de
dff3c8de
dff3c8de
dff3c8de
dff3c8de
dff3c8de
dff3c8de
dff3c8de
dff3c8de
dff3c8de
dff3c8de
dff3c8de
dff3c8de
dff3c8de
dff3c8de
dff3c8de
dff3c8de
dff3c8de
dff3c8de
dff3c8de
dff3c8de
dff3c8de
dff3c8de
dff3c8de
dff3c8de
dff3c8de
dff3c8de
dff3c8de
dff3c8de
dff3c8de
dff3c8de
dff3c8de
dff3c8de
dff3c8de
dff3c8de
dff3c8de
dff3c8de
dff3c8de
dff3c8de
dff3c8de
dff3c8de
dff3c8de
dff3c8de
dff3c8de
dff3c8de
dff3c8de
dff3c8de
dff3c8de
dff3c8de
dff3c8de
dff3c8de
dff3c8de
dff3c8de
dff3c8de
dff3c8de
dff3c8de
dff3c8de
dff3c8de
dff3c8de
dff3c8de
dff3c8de
dff3c8de
dff3c8de
dff3c8de
dff3c8de
dff3c8de
dff3c8de
dff3c8de
dff3c8de
dff3c8de
dff3c8de
dff3c8de
dff3c8de
dff3c8de
dff3c8de
dff3c8de
dff3c8de
dff3c8de
dff3c8de
dff3c8de
dff3c8de
dff3c8de
dff3c8de
dff3c8de
dff3c8de
dff3c8de
dff3c8de
dff3c8de
dff3c8de
dff3c8de
dff3c8de
dff3c8de
dff3c8de
dff3c8de
dff3c8de
dff3c8de
dff3c8de
dff3c8de
dff3c8de
dff3c8de
dff3c8de
dff3c8de
dff3c8de
dff3c8de
dff3c8de
dff3c8de
dff3c8de
dff3c8de
dff3c8de
dff3c8de
dff3c8de
dff3c8de
dff3c8de
dff3c8de
dff3c8de
dff3c8de
dff3c8de
dff3c8de
dff3c8de
dff3c8de
dff3c8de
dff3c8de
dff3c8de
dff3c8de
dff3c8de
dff3c8de
dff3c8de
dff3c8de
dff3c8de
dff3c8de
dff3c8de
dff3c8de
dff3c8de
dff3c8de
dff3c8de
dff3c8de
dff3c8de
dff3c8de
dff3c8de
dff3c8de
dff3c8de
dff3c8de
dff3c8de
dff3c8de
dff3c8de
dff3c8de
dff3c8de
dff3c8de
dff3c8de
dff3c8de
dff3c8de
dff3c8de
dff3c8de
dff3c8de
dff3c8de
dff3c8de
dff3c8de
dff3c8de
dff3c8de
dff3c8de
dff3c8de
dff3c8de
dff3c8de
dff3c8de
dff3c8de
dff3c8de
dff3c8de
dff3c8de
dff3c8de
dff3c8de
dff3c8de
dff3c8de
dff3c8de
dff3c8de
dff3c8de
dff3c8de
dff3c8de
dff3c8de
dff3c8de
dff3c8de
dff3c8de
dff3c8de
dff3c8de
dff3c8de
dff3c8de
dff3c8de
dff3c8de
dff3c8de
dff3c8de
dff3c8de
dff3c8de
dff3c8de
dff3c8de
dff3c8de
dff3c8de
dff3c8de
dff3c8de
dff3c8de
dff3c8de
dff3c8de
dff3c8de
dff3c8de
dff3c8de
dff3c8de
dff3c8de
dff3c8de
dff3c8de
dff3c8de
dff3c8de
dff3c8de
dff3c8de
dff3c8de
dff3c8de
dff3c8de
dff3c8de
dff3c8de
dff3c8de
dff3c8de
dff3c8de
dff3c8de
dff3c8de
dff3c8de
dff3c8de
dff3c8de
dff3c8de
dff3c8de
dff3c8de
dff3c8de
dff3c8de
dff3c8de
dff3c8de
dff3c8de
dff3c8de
dff3c8de
dff3c8de
dff3c8de
dff3c8de
dff3c8de
dff3c8de
dff3c8de
dff3c8de
dff3c8de
dff3c8de
dff3c8de
dff3c8de
dff3c8de
dff3c8de
dff3c8de
dff3c8de
dff3c8de
dff3c8de
dff3c8de
dff3c8de
dff3c8de
dff3c8de
dff3c8de
dff3c8de
dff3c8de
dff3c8de
dff3c8de
dff3c8de
dff3c8de
dff3c8de
dff3c8de
dff3c8de
dff3c8de
dff3c8de
dff3c8de
dff3c8de
dff3c8de
dff3c8de
dff3c8de
dff3c8de
dff3c8de
dff3c8de
dff3c8de
dff3c8de
dff3c8de
dff3c8de
dff3c8de
dff3c8de
dff3c8de
dff3c8de
dff3c8de
dff3c8de
dff3c8de
dff3c8de
dff3c8de
dff3c8de
dff3c8de
dff3c8de
dff3c8de
dff3c8de
dff3c8de
dff3c8de
dff3c8de
dff3c8de
dff3c8de
dff3c8de
dff3c8de
dff3c8de
dff3c8de
dff3c8de
dff3c8de
dff3c8de
dff3c8de
dff3c8de
dff3c8de
dff3c8de
dff3c8de
dff3c8de
dff3c8de
dff3c8de
dff3c8de
dff3c8de
dff3c8de
dff3c8de
dff3c8de
dff3c8de
dff3c8de
dff3c8de
dff3c8de
dff3c8de
dff3c8de
dff3c8de
dff3c8de
dff3c8de
dff3c8de
dff3c8de
dff3c8de
dff3c8de
dff3c8de
dff3c8de
dff3c8de
dff3c8de
dff3c8de
dff3c8de
dff3c8de
dff3c8de
dff3c8de
dff3c8de
dff3c8de
dff3c8de
dff3c8de
dff3c8de
dff3c8de
dff3c8de
dff3c8de
dff3c8de
dff3c8de
dff3c8de
dff3c8de
dff3c8de
dff3c8de
dff3c8de
dff3c8de
dff3c8de
dff3c8de
dff3c8de
dff3c8de
dff3c8de
dff3c8de
dff3c8de
dff3c8de
dff3c8de
dff3c8de
dff3c8de
dff3c8de
dff3c8de
dff3c8de
dff3c8de
dff3c8de
dff3c8de
dff3c8de
dff3c8de
dff3c8de
dff3c8de
dff3c8de
dff3c8de
dff3c8de
dff3c8de
dff3c8de
dff3c8de
dff3c8de
dff3c8de
dff3c8de
dff3c8de
dff3c8de
dff3c8de
dff3c8de
dff3c8de
dff3c8de
dff3c8de
dff3c8de
dff3c8de
dff3c8de
dff3c8de
dff3c8de
dff3c8de
dff3c8de
dff3c8de
dff3c8de
dff3c8de
dff3c8de
dff3c8de
dff3c8de
dff3c8de
dff3c8de
dff3c8de
dff3c8de
dff3c8de
dff3c8de
dff3c8de
dff3c8de
dff3c8de
dff3c8de
dff3c8de
dff3c8de
dff3c8de
dff3c8de
dff3c8de
dff3c8de
dff3c8de
dff3c8de
dff3c8de
dff3c8de
dff3c8de
dff3c8de
dff3c8de
dff3c8de
dff3c8de
dff3c8de
dff3c8de
dff3c8de
dff3c8de
dff3c8de
dff3c8de
dff3c8de
dff3c8de
dff3c8de
dff3c8de
dff3c8de
dff3c8de
dff3c8de
dff3c8de
dff3c8de
dff3c8de
dff3c8de
dff3c8de
dff3c8de
dff3c8de
dff3c8de
dff3c8de
dff3c8de
dff3c8de
dff3c8de
dff3c8de
dff3c8de
dff3c8de
dff3c8de
dff3c8de
dff3c8de
dff3c8de
dff3c8de
dff3c8de
dff3c8de
dff3c8de
dff3c8de
dff3c8de
dff3c8de
dff3c8de
dff3c8de
dff3c8de
dff3c8de
dff3c8de
dff3c8de
dff3c8de
dff3c8de
dff3c8de
dff3c8de
dff3c8de
dff3c8de
dff3c8de
dff3c8de
dff3c8de
dff3c8de
dff3c8de
dff3c8de
dff3c8de
dff3c8de
dff3c8de
dff3c8de
dff3c8de
dff3c8de
dff3c8de
dff3c8de
dff3c8de
dff3c8de
dff3c8de
dff3c8de
dff3c8de
dff3c8de
dff3c8de
dff3c8de
dff3c8de
dff3c8de
dff3c8de
dff3c8de
dff3c8de
dff3c8de
dff3c8de
dff3c8de
dff3c8de
dff3c8de
dff3c8de
dff3c8de
dff3c8de
dff3c8de
dff3c8de
dff3c8de
dff3c8de
dff3c8de
dff3c8de
dff3c8de
dff3c8de
dff3c8de
dff3c8de
dff3c8de
dff3c8de
dff3c8de
dff3c8de
dff3c8de
dff3c8de
dff3c8de
dff3c8de
dff3c8de
dff3c8de
dff3c8de
dff3c8de
dff3c8de
dff3c8de
dff3c8de
dff3c8de
dff3c8de
dff3c8de
dff3c8de
dff3c8de
dff3c8de
dff3c8de
dff3c8de
dff3c8de
dff3c8de
dff3c8de
dff3c8de
dff3c8de
dff3c8de
dff3c8de
dff3c8de
dff3c8de
dff3c8de
dff3c8de
dff3c8de
dff3c8de
dff3c8de
dff3c8de
dff3c8de
dff3c8de
dff3c8de
dff3c8de
dff3c8de
dff3c8de
dff3c8de
dff3c8de
dff3c8de
dff3c8de
dff3c8de
dff3c8de
dff3c8de
dff3c8de
dff3c8de
dff3c8de
dff3c8de
dff3c8de
dff3c8de
dff3c8de
dff3c8de
dff3c8de
dff3c8de
dff3c8de
dff3c8de
dff3c8de
dff3c8de
dff3c8de
dff3c8de
dff3c8de
dff3c8de
dff3c8de
dff3c8de
dff3c8de
dff3c8de
dff3c8de
dff3c8de
dff3c8de
dff3c8de
dff3c8de
dff3c8de
dff3c8de
dff3c8de
dff3c8de
dff3c8de
dff3c8de
dff3c8de
dff3c8de
dff3c8de
dff3c8de
dff3c8de
dff3c8de
dff3c8de
dff3c8de
dff3c8de
dff3c8de
dff3c8de
dff3c8de
dff3c8de
dff3c8de
dff3c8de
dff3c8de
dff3c8de
dff3c8de
dff3c8de
dff3c8de
dff3c8de
dff3c8de
dff3c8de
dff3c8de
dff3c8de
dff3c8de
dff3c8de
dff3c8de
dff3c8de
dff3c8de
dff3c8de
dff3c8de
dff3c8de
dff3c8de
dff3c8de
dff3c8de
dff3c8de
dff3c8de
dff3c8de
dff3c8de
dff3c8de
dff3c8de
dff3c8de
dff3c8de
dff3c8de
dff3c8de
dff3c8de
dff3c8de
dff3c8de
dff3c8de
dff3c8de
dff3c8de
dff3c8de
dff3c8de
dff3c8de
dff3c8de
dff3c8de
dff3c8de
dff3c8de
dff3c8de
dff3c8de
dff3c8de
dff3c8de
dff3c8de
dff3c8de
dff3c8de
dff3c8de
dff3c8de
dff3c8de
dff3c8de
dff3c8de
dff3c8de
dff3c8de
dff3c8de
dff3c8de
dff3c8de
dff3c8de
dff3c8de
dff3c8de
dff3c8de
dff3c8de
dff3c8de
dff3c8de
dff3c8de
dff3c8de
dff3c8de
dff3c8de
dff3c8de
dff3c8de
dff3c8de
dff3c8de
dff3c8de
dff3c8de
dff3c8de
dff3c8de
dff3c8de
dff3c8de
dff3c8de
dff3c8de
dff3c8de
dff3c8de
dff3c8de
dff3c8de
dff3c8de
dff3c8de
dff3c8de
dff3c8de
dff3c8de
dff3c8de
dff3c8de
dff3c8de
dff3c8de
dff3c8de
dff3c8de
dff3c8de
dff3c8de
dff3c8de
dff3c8de
dff3c8de
dff3c8de
dff3c8de
dff3c8de
dff3c8de
dff3c8de
dff3c8de
dff3c8de
dff3c8de
dff3c8de
dff3c8de
dff3c8de
dff3c8de
dff3c8de
dff3c8de
dff3c8de
dff3c8de
dff3c8de
dff3c8de
dff3c8de
dff3c8de
dff3c8de
dff3c8de
dff3c8de
dff3c8de
dff3c8de
dff3c8de
dff3c8de
dff3c8de
dff3c8de
dff3c8de
dff3c8de
dff3c8de
dff3c8de
dff3c8de
dff3c8de
dff3c8de
dff3c8de
dff3c8de
dff3c8de
dff3c8de
dff3c8de
dff3c8de
dff3c8de
dff3c8de
dff3c8de
dff3c8de
dff3c8de
dff3c8de
dff3c8de
dff3c8de
dff3c8de
dff3c8de
dff3c8de
dff3c8de
dff3c8de
dff3c8de
dff3c8de
dff3c8de
dff3c8de
dff3c8de
dff3c8de
dff3c8de
dff3c8de
dff3c8de
dff3c8de
dff3c8de
dff3c8de
dff3c8de
dff3c8de
dff3c8de
dff3c8de
dff3c8de
dff3c8de
dff3c8de
dff3c8de
dff3c8de
dff3c8de
dff3c8de
dff3c8de
dff3c8de
dff3c8de
dff3c8de
dff3c8de
dff3c8de
dff3c8de
dff3c8de
dff3c8de
dff3c8de
dff3c8de
dff3c8de
dff3c8de
dff3c8de
dff3c8de
dff3c8de
dff3c8de
dff3c8de
dff3c8de
dff3c8de
dff3c8de
dff3c8de
dff3c8de
dff3c8de
dff3c8de
dff3c8de
dff3c8de
dff3c8de
dff3c8de
dff3c8de
dff3c8de
dff3c8de
dff3c8de
dff3c8de
dff3c8de
dff3c8de
dff3c8de
dff3c8de
dff3c8de
dff3c8de
dff3c8de
dff3c8de
dff3c8de
dff3c8de
dff3c8de
dff3c8de
dff3c8de
dff3c8de
dff3c8de
dff3c8de
dff3c8de
dff3c8de
dff3c8de
dff3c8de
dff3c8de
dff3c8de
dff3c8de
dff3c8de
dff3c8de
dff3c8de
dff3c8de
dff3c8de
dff3c8de
dff3c8de
dff3c8de
dff3c8de
dff3c8de
dff3c8de
dff3c8de
dff3c8de
dff3c8de
dff3c8de
dff3c8de
dff3c8de
dff3c8de
dff3c8de
dff3c8de
dff3c8de
dff3c8de
dff3c8de
dff3c8de
dff3c8de
dff3c8de
dff3c8de
dff3c8de
dff3c8de
dff3c8de
dff3c8de
dff3c8de
dff3c8de
dff3c8de
dff3c8de
dff3c8de
dff3c8de
dff3c8de
dff3c8de
dff3c8de
dff3c8de
dff3c8de
dff3c8de
dff3c8de
dff3c8de
dff3c8de
dff3c8de
dff3c8de
dff3c8de
dff3c8de
dff3c8de
dff3c8de
dff3c8de
dff3c8de
dff3c8de
dff3c8de
dff3c8de
dff3c8de
dff3c8de
dff3c8de
dff3c8de
dff3c8de
dff3c8de
dff3c8de
dff3c8de
dff3c8de
dff3c8de
dff3c8de
dff3c8de
dff3c8de
dff3c8de
dff3c8de
dff3c8de
dff3c8de
dff3c8de
dff3c8de
dff3c8de
dff3c8de
dff3c8de
dff3c8de
dff3c8de
dff3c8de
dff3c8de
dff3c8de
dff3c8de
dff3c8de
dff3c8de
dff3c8de
dff3c8de
dff3c8de
